<pad>	0
<unk>	0
<bos>	0
<eos>	0
▁t	-0
he	-1
▁a	-2
in	-3
▁s	-4
▁the	-5
▁w	-6
▁.	-7
▁,	-8
re	-9
▁o	-10
▁b	-11
▁h	-12
ed	-13
▁i	-14
ou	-15
nd	-16
▁f	-17
▁c	-18
▁m	-19
er	-20
ing	-21
at	-22
▁to	-23
▁he	-24
▁d	-25
▁l	-26
en	-27
▁th	-28
on	-29
▁and	-30
is	-31
as	-32
▁p	-33
ll	-34
or	-35
ar	-36
an	-37
▁of	-38
es	-39
▁n	-40
▁in	-41
▁g	-42
it	-43
ad	-44
om	-45
▁be	-46
▁y	-47
ow	-48
▁e	-49
▁was	-50
ut	-51
le	-52
ot	-53
▁it	-54
ld	-55
id	-56
▁on	-57
ac	-58
▁you	-59
▁we	-60
ve	-61
▁that	-62
ly	-63
gh	-64
▁st	-65
st	-66
ic	-67
▁r	-68
▁re	-69
▁u	-70
et	-71
al	-72
ay	-73
▁his	-74
im	-75
▁wh	-76
ent	-77
se	-78
▁as	-79
ver	-80
ir	-81
▁had	-82
oo	-83
▁for	-84
ur	-85
ould	-86
▁ha	-87
▁her	-88
ght	-89
ion	-90
▁an	-91
ith	-92
▁k	-93
▁with	-94
▁she	-95
am	-96
▁j	-97
▁at	-98
▁?	-99
▁fr	-100
▁se	-101
all	-102
▁li	-103
▁not	-104
▁sh	-105
▁me	-106
ke	-107
her	-108
▁but	-109
▁my	-110
nt	-111
ill	-112
red	-113
ter	-114
ro	-115
ain	-116
▁'	-117
▁is	-118
▁do	-119
ce	-120
▁sa	-121
il	-122
▁they	-123
pp	-124
ight	-125
ked	-126
▁him	-127
ch	-128
▁so	-129
▁ne	-130
ack	-131
ri	-132
ore	-133
ct	-134
ome	-135
▁out	-136
▁su	-137
rou	-138
▁have	-139
ard	-140
▁from	-141
▁were	-142
el	-143
▁up	-144
ust	-145
▁whe	-146
▁al	-147
ge	-148
out	-149
▁what	-150
▁would	-151
ant	-152
▁this	-153
▁kn	-154
▁le	-155
▁ch	-156
▁ab	-157
▁all	-158
▁con	-159
▁de	-160
▁int	-161
ra	-162
ind	-163
▁no	-164
ie	-165
qu	-166
hing	-167
▁there	-168
ers	-169
▁go	-170
▁ex	-171
un	-172
king	-173
▁sp	-174
▁loo	-175
us	-176
▁v	-177
▁said	-178
▁one	-179
ess	-180
ab	-181
est	-182
▁could	-183
▁fe	-184
ap	-185
um	-186
and	-187
one	-188
▁ro	-189
lo	-190
art	-191
▁man	-192
▁back	-193
hed	-194
fe	-195
own	-196
ood	-197
ul	-198
▁or	-199
▁into	-200
ck	-201
▁''	-202
▁tr	-203
▁did	-204
▁see	-205
ist	-206
▁them	-207
▁wor	-208
▁if	-209
▁co	-210
ation	-211
▁by	-212
ide	-213
▁like	-214
▁are	-215
▁about	-216
ally	-217
▁tim	-218
▁pl	-219
ast	-220
ss	-221
ong	-222
▁then	-223
▁when	-224
ate	-225
▁some	-226
▁com	-227
▁been	-228
ig	-229
ep	-230
very	-231
▁just	-232
▁im	-233
ort	-234
ace	-235
▁ag	-236
▁any	-237
▁bo	-238
ous	-239
op	-240
▁their	-241
▁know	-242
▁over	-243
ame	-244
ont	-245
our	-246
▁time	-247
▁tw	-248
▁sm	-249
way	-250
▁qu	-251
ake	-252
urn	-253
▁get	-254
▁down	-255
▁mo	-256
ft	-257
▁te	-258
▁po	-259
▁af	-260
round	-261
▁who	-262
▁us	-263
ven	-264
ound	-265
are	-266
▁ar	-267
▁un	-268
au	-269
▁now	-270
ick	-271
▁en	-272
ive	-273
ther	-274
▁pr	-275
▁will	-276
▁bl	-277
▁your	-278
ure	-279
▁too	-280
▁hand	-281
ag	-282
▁can	-283
▁off	-284
▁jo	-285
▁!	-286
▁more	-287
▁sl	-288
▁pro	-289
ry	-290
iss	-291
▁thou	-292
sel	-293
ull	-294
▁sc	-295
▁its	-296
▁lo	-297
ved	-298
ice	-299
ered	-300
▁how	-301
▁br	-302
itt	-303
▁after	-304
▁cl	-305
ink	-306
▁other	-307
ine	-308
if	-309
fore	-310
ect	-311
ire	-312
ass	-313
▁again	-314
nder	-315
▁before	-316
ak	-317
▁two	-318
ol	-319
▁than	-320
▁ey	-321
ade	-322
pl	-323
▁way	-324
▁here	-325
▁fl	-326
ies	-327
self	-328
av	-329
pped	-330
ity	-331
other	-332
ite	-333
▁gu	-334
ment	-335
pt	-336
ile	-337
▁only	-338
▁ad	-339
▁our	-340
▁pre	-341
▁well	-342
▁around	-343
▁wat	-344
ated	-345
led	-346
ars	-347
ip	-348
▁even	-349
act	-350
ich	-351
▁ye	-352
ward	-353
▁cont	-354
▁want	-355
ree	-356
▁am	-357
rough	-358
▁ac	-359
ble	-360
ang	-361
▁looked	-362
▁head	-363
▁through	-364
able	-365
▁dis	-366
▁fir	-367
iz	-368
▁every	-369
ks	-370
omet	-371
ings	-372
reat	-373
▁think	-374
▁still	-375
▁mu	-376
▁right	-377
▁thought	-378
ious	-379
▁turn	-380
ach	-381
▁fo	-382
▁where	-383
th	-384
▁somet	-385
med	-386
▁eyes	-387
ied	-388
▁pe	-389
▁bec	-390
▁day	-391
▁going	-392
▁long	-393
▁first	-394
age	-395
▁asked	-396
ance	-397
ond	-398
▁sw	-399
▁gr	-400
▁rem	-401
▁dont	-402
ough	-403
ving	-404
ber	-405
▁op	-406
ans	-407
▁under	-408
▁fin	-409
ather	-410
▁something	-411
▁ho	-412
ud	-413
▁good	-414
▁door	-415
ave	-416
ff	-417
ue	-418
em	-419
wn	-420
▁should	-421
▁got	-422
▁app	-423
▁has	-424
ord	-425
▁exp	-426
▁clo	-427
▁say	-428
ning	-429
ady	-430
▁cr	-431
▁let	-432
▁which	-433
▁much	-434
anc	-435
▁war	-436
▁per	-437
ark	-438
▁kne	-439
▁bet	-440
ount	-441
ened	-442
▁litt	-443
▁gl	-444
int	-445
▁need	-446
thing	-447
ence	-448
▁away	-449
▁little	-450
ose	-451
▁may	-452
ared	-453
▁come	-454
dy	-455
▁face	-456
▁old	-457
▁didnt	-458
▁spe	-459
▁made	-460
▁sec	-461
▁mom	-462
▁very	-463
▁car	-464
ru	-465
▁wal	-466
▁em	-467
ple	-468
▁beg	-469
sp	-470
ions	-471
▁sur	-472
ily	-473
▁ke	-474
ched	-475
▁never	-476
ren	-477
▁find	-478
air	-479
▁des	-480
▁bot	-481
▁start	-482
ys	-483
▁ra	-484
ying	-485
os	-486
▁room	-487
ase	-488
ath	-489
▁wa	-490
▁found	-491
lie	-492
llow	-493
side	-494
▁new	-495
▁look	-496
▁left	-497
aking	-498
ah	-499
▁hu	-500
ish	-501
▁knew	-502
dd	-503
▁few	-504
▁tell	-505
gg	-506
ting	-507
▁take	-508
tain	-509
▁came	-510
▁make	-511
▁att	-512
ny	-513
▁air	-514
▁sure	-515
ause	-516
▁why	-517
iv	-518
▁che	-519
▁took	-520
ried	-521
▁feel	-522
▁peop	-523
▁part	-524
▁while	-525
▁id	-526
ty	-527
be	-528
▁small	-529
elt	-530
▁people	-531
▁turned	-532
les	-533
▁ent	-534
ild	-535
ms	-536
▁el	-537
▁hel	-538
▁side	-539
ross	-540
uck	-541
ress	-542
▁life	-543
▁dr	-544
▁call	-545
ise	-546
▁another	-547
▁happ	-548
ci	-549
▁toward	-550
▁ret	-551
▁felt	-552
ook	-553
▁looking	-554
▁beh	-555
▁end	-556
xt	-557
▁tom	-558
ens	-559
▁set	-560
▁those	-561
iend	-562
▁unt	-563
▁saw	-564
▁friend	-565
▁went	-566
▁real	-567
▁tal	-568
▁must	-569
▁men	-570
hes	-571
ors	-572
▁light	-573
▁sk	-574
▁place	-575
▁wait	-576
▁dec	-577
▁pull	-578
▁vo	-579
▁most	-580
▁far	-581
▁really	-582
▁imp	-583
irl	-584
▁str	-585
mo	-586
▁min	-587
ful	-588
▁might	-589
▁night	-590
ps	-591
▁gra	-592
▁ob	-593
▁own	-594
▁pass	-595
een	-596
so	-597
get	-598
▁behind	-599
▁because	-600
▁years	-601
pe	-602
ool	-603
▁many	-604
▁enough	-605
ents	-606
▁rec	-607
▁three	-608
▁bu	-609
▁until	-610
ne	-611
▁tra	-612
▁last	-613
▁act	-614
▁follow	-615
▁mar	-616
ness	-617
▁these	-618
▁put	-619
▁told	-620
ph	-621
▁cap	-622
▁lar	-623
▁being	-624
ds	-625
▁cour	-626
ons	-627
▁ste	-628
▁help	-629
orm	-630
ory	-631
▁ser	-632
ater	-633
▁water	-634
ves	-635
ned	-636
ret	-637
▁hard	-638
▁yes	-639
ling	-640
rew	-641
▁himself	-642
▁cle	-643
▁girl	-644
▁next	-645
▁both	-646
my	-647
▁mind	-648
▁priss	-649
▁keep	-650
▁nothing	-651
▁ed	-652
ary	-653
ouse	-654
▁open	-655
▁quick	-656
▁thing	-657
▁each	-658
per	-659
igh	-660
▁dark	-661
ail	-662
▁sat	-663
▁hands	-664
ange	-665
ways	-666
▁wr	-667
▁cou	-668
▁sound	-669
▁seemed	-670
▁point	-671
▁once	-672
ell	-673
▁run	-674
bb	-675
▁sil	-676
ream	-677
▁lau	-678
▁ph	-679
te	-680
ted	-681
▁along	-682
▁father	-683
▁began	-684
row	-685
▁cor	-686
▁miss	-687
jo	-688
▁anything	-689
▁comp	-690
aring	-691
ating	-692
▁things	-693
sw	-694
▁also	-695
▁second	-696
az	-697
▁ill	-698
▁heard	-699
▁met	-700
ian	-701
▁inst	-702
▁contin	-703
▁clos	-704
▁front	-705
▁mor	-706
▁slow	-707
▁return	-708
▁ann	-709
▁kill	-710
▁sn	-711
▁home	-712
▁prissi	-713
ible	-714
▁rest	-715
▁voice	-716
▁answ	-717
▁wind	-718
▁though	-719
▁work	-720
most	-721
ower	-722
▁big	-723
ical	-724
iver	-725
▁body	-726
▁across	-727
ised	-728
to	-729
▁care	-730
ually	-731
ained	-732
ng	-733
▁same	-734
▁1	-735
ier	-736
▁wall	-737
▁almost	-738
▁course	-739
ching	-740
▁world	-741
▁moment	-742
vent	-743
▁hal	-744
▁against	-745
▁west	-746
▁without	-747
▁stood	-748
ced	-749
▁acc	-750
ached	-751
▁ass	-752
▁house	-753
▁inc	-754
ever	-755
ia	-756
ince	-757
▁hop	-758
▁sto	-759
▁always	-760
▁ale	-761
▁hum	-762
der	-763
▁stand	-764
ped	-765
▁does	-766
ank	-767
▁char	-768
ner	-769
▁wom	-770
▁maybe	-771
ix	-772
▁flo	-773
▁res	-774
▁land	-775
▁started	-776
ial	-777
▁dist	-778
ully	-779
▁fam	-780
ign	-781
▁quest	-782
ition	-783
▁comm	-784
▁pa	-785
▁dad	-786
▁ever	-787
▁repl	-788
▁wanted	-789
ung	-790
▁dif	-791
▁belie	-792
▁thats	-793
▁near	-794
▁minut	-795
▁later	-796
▁dri	-797
ove	-798
ations	-799
▁feet	-800
ued	-801
cc	-802
▁tre	-803
ished	-804
▁supp	-805
▁better	-806
▁finally	-807
ction	-808
▁youre	-809
▁gi	-810
▁dro	-811
▁hour	-812
less	-813
▁hes	-814
ately	-815
▁four	-816
▁walked	-817
▁bus	-818
att	-819
▁inv	-820
ready	-821
▁remem	-822
▁already	-823
cept	-824
ently	-825
▁lord	-826
▁black	-827
▁great	-828
▁ple	-829
ult	-830
▁cam	-831
▁pers	-832
ason	-833
used	-834
▁soon	-835
▁wasnt	-836
▁dire	-837
ik	-838
ided	-839
iled	-840
▁hold	-841
atter	-842
▁yet	-843
▁conf	-844
lor	-845
▁close	-846
idd	-847
ired	-848
▁seen	-849
▁underst	-850
▁trying	-851
▁quickly	-852
▁such	-853
▁young	-854
bo	-855
▁ear	-856
▁since	-857
▁everything	-858
cked	-859
▁oh	-860
ict	-861
▁ind	-862
▁cur	-863
▁days	-864
▁pulled	-865
▁ca	-866
▁show	-867
▁bre	-868
▁half	-869
▁ground	-870
ably	-871
▁dead	-872
aps	-873
iet	-874
▁high	-875
ib	-876
▁done	-877
▁bro	-878
▁inter	-879
▁sle	-880
▁bit	-881
▁gre	-882
ards	-883
▁bed	-884
▁tri	-885
▁vis	-886
▁inf	-887
▁fire	-888
ected	-889
▁someone	-890
ined	-891
▁es	-892
▁betw	-893
dden	-894
▁hor	-895
▁plan	-896
▁between	-897
rent	-898
umb	-899
ized	-900
▁eas	-901
▁stay	-902
pr	-903
▁rel	-904
▁deep	-905
▁held	-906
ense	-907
outh	-908
▁expl	-909
▁sudden	-910
ger	-911
▁count	-912
▁manny	-913
▁mean	-914
▁mr	-915
aced	-916
aught	-917
▁tommy	-918
▁tried	-919
fect	-920
▁chap	-921
▁breat	-922
▁dra	-923
▁sho	-924
▁add	-925
▁conc	-926
▁rep	-927
up	-928
als	-929
gether	-930
ub	-931
▁large	-932
sh	-933
▁wo	-934
▁ge	-935
fully	-936
▁joe	-937
ric	-938
app	-939
▁tay	-940
▁comple	-941
▁move	-942
▁doing	-943
ering	-944
ott	-945
ention	-946
iously	-947
gs	-948
▁disc	-949
▁replied	-950
rest	-951
▁eng	-952
uff	-953
▁ter	-954
▁words	-955
ift	-956
▁stop	-957
▁gab	-958
▁cant	-959
▁rafe	-960
▁best	-961
▁chapter	-962
ured	-963
▁table	-964
▁inte	-965
▁thin	-966
▁inside	-967
▁bel	-968
▁blood	-969
▁ma	-970
▁appe	-971
▁morning	-972
▁aw	-973
▁mother	-974
day	-975
ged	-976
land	-977
▁shar	-978
▁together	-979
ertain	-980
▁poss	-981
▁past	-982
▁give	-983
▁getting	-984
▁tar	-985
▁gave	-986
▁ide	-987
▁rock	-988
▁cent	-989
here	-990
▁heart	-991
▁red	-992
▁kind	-993
ited	-994
▁wee	-995
ash	-996
▁exc	-997
▁coming	-998
▁bear	-999
▁gone	-1000
▁arm	-1001
▁myself	-1002
▁floor	-1003
ins	-1004
▁read	-1005
▁white	-1006
▁understand	-1007
▁reg	-1008
▁tak	-1009
▁list	-1010
▁play	-1011
▁used	-1012
▁person	-1013
no	-1014
▁continued	-1015
▁lot	-1016
▁road	-1017
lly	-1018
▁pain	-1019
▁ship	-1020
▁sun	-1021
▁stopped	-1022
▁la	-1023
▁stud	-1024
▁diffe	-1025
ither	-1026
▁hear	-1027
ows	-1028
▁believe	-1029
▁jose	-1030
▁captain	-1031
▁mount	-1032
▁bar	-1033
▁else	-1034
▁joseph	-1035
▁top	-1036
▁slowly	-1037
▁cons	-1038
▁arri	-1039
▁alejo	-1040
▁pus	-1041
▁taylor	-1042
arent	-1043
▁fall	-1044
els	-1045
▁det	-1046
▁least	-1047
▁resp	-1048
▁called	-1049
▁five	-1050
▁minutes	-1051
▁leave	-1052
▁joh	-1053
▁sit	-1054
▁coll	-1055
▁name	-1056
aves	-1057
▁sim	-1058
▁bad	-1059
▁john	-1060
▁stre	-1061
..	-1062
▁couldnt	-1063
fl	-1064
▁wara	-1065
itting	-1066
▁ev	-1067
▁hur	-1068
▁use	-1069
▁towards	-1070
▁power	-1071
ures	-1072
irt	-1073
▁short	-1074
by	-1075
▁har	-1076
▁fore	-1077
fort	-1078
▁sub	-1079
ets	-1080
▁ok	-1081
▁boy	-1082
ster	-1083
▁opened	-1084
▁guy	-1085
▁fing	-1086
▁quite	-1087
▁river	-1088
▁woman	-1089
▁others	-1090
▁fact	-1091
▁step	-1092
▁hit	-1093
▁fill	-1094
▁question	-1095
▁quiet	-1096
▁surpr	-1097
ates	-1098
▁suddenly	-1099
veral	-1100
▁smiled	-1101
though	-1102
▁par	-1103
▁onto	-1104
ept	-1105
▁lead	-1106
vel	-1107
pping	-1108
vers	-1109
ipped	-1110
▁fre	-1111
▁although	-1112
oke	-1113
▁gen	-1114
▁hell	-1115
▁book	-1116
▁several	-1117
og	-1118
▁ref	-1119
icked	-1120
ual	-1121
▁full	-1122
ele	-1123
▁hair	-1124
▁sleep	-1125
▁reached	-1126
ces	-1127
▁appro	-1128
▁cry	-1129
▁pres	-1130
▁bill	-1131
▁prob	-1132
▁ive	-1133
▁brother	-1134
▁ran	-1135
lled	-1136
▁lay	-1137
▁mon	-1138
▁family	-1139
▁talk	-1140
▁herself	-1141
▁everyone	-1142
▁dam	-1143
▁love	-1144
▁2	-1145
▁ari	-1146
▁above	-1147
▁happened	-1148
ters	-1149
owing	-1150
▁bri	-1151
▁wood	-1152
▁friends	-1153
▁able	-1154
▁shad	-1155
▁cut	-1156
▁bur	-1157
▁forward	-1158
▁foot	-1159
▁remember	-1160
▁idea	-1161
▁watched	-1162
ased	-1163
▁feeling	-1164
▁squ	-1165
iness	-1166
▁ang	-1167
▁certain	-1168
oney	-1169
▁unc	-1170
▁child	-1171
▁build	-1172
▁moved	-1173
▁pur	-1174
haps	-1175
▁clear	-1176
mer	-1177
ject	-1178
▁conn	-1179
ton	-1180
▁decided	-1181
▁ready	-1182
▁fur	-1183
▁sign	-1184
ape	-1185
▁rick	-1186
▁probably	-1187
na	-1188
▁perhaps	-1189
▁city	-1190
▁stra	-1191
▁ner	-1192
▁meet	-1193
▁matter	-1194
▁ve	-1195
ically	-1196
head	-1197
▁within	-1198
▁different	-1199
▁try	-1200
wa	-1201
ains	-1202
enty	-1203
▁reason	-1204
ize	-1205
▁death	-1206
▁smile	-1207
▁times	-1208
▁having	-1209
▁cat	-1210
▁making	-1211
ndred	-1212
▁free	-1213
▁anyone	-1214
▁mem	-1215
▁hope	-1216
ient	-1217
uring	-1218
▁hundred	-1219
owed	-1220
▁fig	-1221
▁arms	-1222
▁interest	-1223
▁sch	-1224
▁nodd	-1225
▁outside	-1226
ants	-1227
ening	-1228
▁less	-1229
▁complete	-1230
nded	-1231
▁guess	-1232
▁taking	-1233
gged	-1234
▁cold	-1235
▁thinking	-1236
uth	-1237
▁grou	-1238
▁followed	-1239
io	-1240
▁fell	-1241
▁cir	-1242
airs	-1243
▁fun	-1244
▁swe	-1245
ines	-1246
aster	-1247
▁esc	-1248
▁chr	-1249
▁fly	-1250
▁whis	-1251
▁standing	-1252
ular	-1253
▁exper	-1254
▁disapp	-1255
oud	-1256
part	-1257
▁pat	-1258
▁lear	-1259
▁lilly	-1260
▁couple	-1261
▁del	-1262
imb	-1263
▁ru	-1264
its	-1265
▁sy	-1266
▁mouth	-1267
ield	-1268
▁mil	-1269
▁safe	-1270
▁camp	-1271
▁direct	-1272
ides	-1273
▁bring	-1274
▁glass	-1275
▁col	-1276
▁creat	-1277
▁became	-1278
▁thir	-1279
gy	-1280
ene	-1281
▁ago	-1282
▁adele	-1283
▁wonder	-1284
▁ten	-1285
▁lost	-1286
▁proble	-1287
▁dou	-1288
▁nort	-1289
rought	-1290
de	-1291
▁tun	-1292
▁nat	-1293
aut	-1294
▁arii	-1295
▁taken	-1296
iding	-1297
▁guys	-1298
▁pol	-1299
▁sol	-1300
▁ele	-1301
▁year	-1302
▁dav	-1303
▁mont	-1304
▁needed	-1305
anger	-1306
▁returned	-1307
aining	-1308
▁hours	-1309
▁food	-1310
▁main	-1311
▁waiting	-1312
br	-1313
▁ext	-1314
▁med	-1315
▁kept	-1316
▁david	-1317
▁breath	-1318
rol	-1319
▁gun	-1320
aving	-1321
▁nodded	-1322
▁passed	-1323
▁cal	-1324
▁pos	-1325
where	-1326
iew	-1327
ken	-1328
bbed	-1329
▁sent	-1330
▁cre	-1331
ghed	-1332
▁closed	-1333
ten	-1334
▁boat	-1335
▁whole	-1336
▁king	-1337
cess	-1338
▁please	-1339
▁tou	-1340
iling	-1341
man	-1342
▁mot	-1343
▁circ	-1344
▁eye	-1345
ime	-1346
▁bott	-1347
▁school	-1348
▁ins	-1349
▁brought	-1350
ife	-1351
▁pap	-1352
▁either	-1353
▁cra	-1354
▁month	-1355
▁jum	-1356
▁mag	-1357
▁money	-1358
▁jack	-1359
▁ger	-1360
ots	-1361
▁laugh	-1362
ists	-1363
waum	-1364
ience	-1365
▁fight	-1366
▁gwaum	-1367
▁z	-1368
akes	-1369
▁loc	-1370
▁prot	-1371
▁break	-1372
▁occ	-1373
▁lady	-1374
▁six	-1375
▁sor	-1376
▁obv	-1377
▁av	-1378
▁says	-1379
iced	-1380
▁hunt	-1381
▁def	-1382
aged	-1383
ison	-1384
▁however	-1385
▁...	-1386
▁low	-1387
▁yeah	-1388
aces	-1389
▁laughed	-1390
▁story	-1391
▁god	-1392
anced	-1393
▁wouldnt	-1394
uss	-1395
▁become	-1396
ale	-1397
▁imag	-1398
▁sitting	-1399
▁rather	-1400
▁gold	-1401
▁chang	-1402
▁slight	-1403
ike	-1404
▁ask	-1405
▁line	-1406
▁dest	-1407
▁grand	-1408
▁filled	-1409
orge	-1410
iff	-1411
eric	-1412
ames	-1413
▁begin	-1414
ments	-1415
▁walk	-1416
▁trans	-1417
▁answer	-1418
▁job	-1419
▁bes	-1420
▁stru	-1421
▁offic	-1422
▁heav	-1423
▁prom	-1424
▁pret	-1425
▁town	-1426
▁talking	-1427
▁sal	-1428
▁exact	-1429
▁cas	-1430
▁clot	-1431
osed	-1432
▁beaut	-1433
▁tarren	-1434
▁running	-1435
▁sort	-1436
▁bearl	-1437
▁twenty	-1438
▁strange	-1439
▁sorry	-1440
▁area	-1441
▁word	-1442
▁sear	-1443
▁cho	-1444
▁hot	-1445
▁blue	-1446
▁gabe	-1447
ressed	-1448
che	-1449
▁sir	-1450
▁truck	-1451
▁command	-1452
▁answered	-1453
body	-1454
▁adm	-1455
nding	-1456
▁soft	-1457
▁mus	-1458
acked	-1459
▁sing	-1460
▁known	-1461
▁boo	-1462
▁fear	-1463
▁climb	-1464
▁gener	-1465
ches	-1466
▁order	-1467
ming	-1468
▁lets	-1469
▁pie	-1470
▁street	-1471
▁fift	-1472
urs	-1473
▁shot	-1474
▁sold	-1475
▁group	-1476
nel	-1477
▁cross	-1478
▁window	-1479
▁shoulder	-1480
▁girls	-1481
cial	-1482
▁upon	-1483
ead	-1484
▁je	-1485
▁sharian	-1486
cy	-1487
▁trou	-1488
▁shook	-1489
▁son	-1490
▁looks	-1491
▁opp	-1492
▁thank	-1493
▁pretty	-1494
ns	-1495
▁mal	-1496
▁edge	-1497
unk	-1498
▁added	-1499
▁hang	-1500
▁secret	-1501
▁business	-1502
▁control	-1503
ute	-1504
▁hed	-1505
▁george	-1506
▁except	-1507
aim	-1508
▁doesnt	-1509
ility	-1510
▁disappe	-1511
▁americ	-1512
▁island	-1513
▁theres	-1514
ract	-1515
▁chair	-1516
▁cryst	-1517
▁living	-1518
lf	-1519
ident	-1520
▁attention	-1521
▁bag	-1522
▁blo	-1523
▁press	-1524
▁chance	-1525
▁team	-1526
vered	-1527
selves	-1528
▁longer	-1529
▁instead	-1530
lter	-1531
antly	-1532
▁wrong	-1533
▁danger	-1534
ts	-1535
ares	-1536
▁skin	-1537
▁prep	-1538
▁scream	-1539
ush	-1540
▁eff	-1541
▁silence	-1542
▁below	-1543
ific	-1544
▁wiz	-1545
ities	-1546
▁caught	-1547
ilt	-1548
ler	-1549
▁true	-1550
aned	-1551
ane	-1552
▁bir	-1553
▁tight	-1554
▁trees	-1555
▁pri	-1556
aw	-1557
▁path	-1558
▁fingers	-1559
▁led	-1560
▁given	-1561
▁strong	-1562
▁actually	-1563
▁watching	-1564
▁box	-1565
▁sharianna	-1566
yed	-1567
cking	-1568
▁fort	-1569
▁import	-1570
▁watch	-1571
▁alone	-1572
▁inform	-1573
▁fine	-1574
▁arrived	-1575
medi	-1576
unch	-1577
▁phone	-1578
ax	-1579
▁speak	-1580
▁working	-1581
▁spoke	-1582
▁problem	-1583
za	-1584
▁sky	-1585
▁lift	-1586
▁stone	-1587
▁immedi	-1588
▁empt	-1589
▁sight	-1590
bl	-1591
aded	-1592
ma	-1593
▁mess	-1594
▁closer	-1595
▁perfect	-1596
▁appeared	-1597
▁live	-1598
▁anyway	-1599
▁leaving	-1600
▁stepped	-1601
du	-1602
▁ir	-1603
▁tor	-1604
▁mist	-1605
▁straight	-1606
▁johnny	-1607
▁billy	-1608
▁green	-1609
▁entered	-1610
▁hill	-1611
▁dream	-1612
▁guard	-1613
▁chest	-1614
▁sense	-1615
ney	-1616
▁enjo	-1617
▁mut	-1618
▁further	-1619
▁compan	-1620
idden	-1621
ister	-1622
▁form	-1623
▁seat	-1624
▁holding	-1625
▁happy	-1626
▁walking	-1627
▁abs	-1628
▁fast	-1629
ert	-1630
gan	-1631
unt	-1632
ging	-1633
iful	-1634
umber	-1635
▁sand	-1636
ising	-1637
ror	-1638
▁case	-1639
▁situ	-1640
▁stuff	-1641
▁visit	-1642
▁batt	-1643
▁na	-1644
▁office	-1645
▁exactly	-1646
▁possible	-1647
ping	-1648
▁seems	-1649
▁whatever	-1650
ring	-1651
isted	-1652
▁killed	-1653
▁event	-1654
▁christ	-1655
▁position	-1656
ancy	-1657
ives	-1658
▁kid	-1659
▁legs	-1660
▁distance	-1661
▁anna	-1662
▁hung	-1663
▁neck	-1664
ator	-1665
▁win	-1666
▁requ	-1667
▁thoughts	-1668
▁explo	-1669
▁sea	-1670
lew	-1671
vin	-1672
▁luck	-1673
▁books	-1674
▁whisp	-1675
olo	-1676
owers	-1677
▁change	-1678
▁midd	-1679
▁today	-1680
read	-1681
▁bright	-1682
▁entire	-1683
▁finished	-1684
ior	-1685
▁da	-1686
▁mer	-1687
▁rober	-1688
col	-1689
▁during	-1690
ffe	-1691
▁rob	-1692
▁thr	-1693
▁view	-1694
▁grabbed	-1695
ha	-1696
▁pal	-1697
ho	-1698
▁hall	-1699
▁wont	-1700
▁whats	-1701
cra	-1702
ics	-1703
ative	-1704
▁country	-1705
▁spot	-1706
▁trust	-1707
▁desp	-1708
▁doub	-1709
▁shout	-1710
▁pushed	-1711
▁pointed	-1712
ery	-1713
▁cab	-1714
▁sum	-1715
craft	-1716
▁noticed	-1717
cted	-1718
ones	-1719
▁moving	-1720
▁dropped	-1721
▁bare	-1722
▁warm	-1723
▁covered	-1724
▁tem	-1725
▁kiss	-1726
▁crystal	-1727
▁late	-1728
▁susp	-1729
▁wond	-1730
▁cover	-1731
oof	-1732
▁adv	-1733
▁prof	-1734
▁direction	-1735
cks	-1736
▁ord	-1737
▁parent	-1738
▁eight	-1739
▁rand	-1740
me	-1741
▁immediately	-1742
aze	-1743
acing	-1744
▁beautiful	-1745
iny	-1746
lling	-1747
▁loud	-1748
▁middle	-1749
mb	-1750
ef	-1751
▁fu	-1752
▁apart	-1753
▁pay	-1754
▁sword	-1755
aled	-1756
▁leg	-1757
▁agre	-1758
▁okay	-1759
▁heavy	-1760
▁empty	-1761
rupt	-1762
▁dev	-1763
▁burn	-1764
▁placed	-1765
ham	-1766
arth	-1767
▁huge	-1768
▁vill	-1769
▁prison	-1770
▁saying	-1771
▁coulter	-1772
ested	-1773
▁nice	-1774
▁scott	-1775
▁equ	-1776
▁months	-1777
▁information	-1778
▁deal	-1779
▁pict	-1780
▁bob	-1781
▁sugg	-1782
lud	-1783
bered	-1784
▁early	-1785
▁special	-1786
▁building	-1787
▁sett	-1788
▁ahead	-1789
▁carry	-1790
▁picked	-1791
sey	-1792
ought	-1793
▁ones	-1794
▁vall	-1795
▁attack	-1796
▁figure	-1797
empt	-1798
▁eat	-1799
▁horse	-1800
▁whispered	-1801
vern	-1802
ushed	-1803
▁smell	-1804
gth	-1805
▁ray	-1806
▁forg	-1807
▁lips	-1808
▁number	-1809
▁completely	-1810
▁hist	-1811
▁seth	-1812
▁week	-1813
▁slade	-1814
▁hidden	-1815
iting	-1816
▁pick	-1817
ider	-1818
▁finan	-1819
ze	-1820
▁3	-1821
▁reve	-1822
fic	-1823
▁tree	-1824
▁nerza	-1825
▁worked	-1826
▁bra	-1827
▁star	-1828
aching	-1829
▁waited	-1830
ey	-1831
ital	-1832
▁val	-1833
▁aircraft	-1834
zz	-1835
oun	-1836
ories	-1837
▁easy	-1838
▁round	-1839
idge	-1840
▁fool	-1841
▁prov	-1842
▁state	-1843
▁following	-1844
room	-1845
▁mur	-1846
▁ener	-1847
▁weeks	-1848
▁agreed	-1849
ulf	-1850
▁parents	-1851
ages	-1852
▁ram	-1853
ances	-1854
▁caves	-1855
▁humik	-1856
▁steps	-1857
▁tunnel	-1858
▁enc	-1859
▁hadnt	-1860
▁nearly	-1861
00	-1862
▁imm	-1863
light	-1864
▁earth	-1865
▁ant	-1866
blanc	-1867
▁dust	-1868
▁wide	-1869
ousand	-1870
▁leblanc	-1871
▁thousand	-1872
▁truth	-1873
enn	-1874
ues	-1875
▁hon	-1876
▁obs	-1877
ision	-1878
▁corner	-1879
▁situation	-1880
▁field	-1881
▁broken	-1882
▁doct	-1883
▁using	-1884
era	-1885
▁gri	-1886
orrow	-1887
▁wondered	-1888
▁cond	-1889
▁trail	-1890
ask	-1891
▁rad	-1892
▁important	-1893
ote	-1894
oul	-1895
ived	-1896
▁sad	-1897
▁died	-1898
▁bottom	-1899
ashed	-1900
▁knows	-1901
▁realized	-1902
pper	-1903
▁kit	-1904
▁trip	-1905
▁spent	-1906
▁attempt	-1907
itted	-1908
▁draw	-1909
▁north	-1910
▁worry	-1911
▁dem	-1912
▁concer	-1913
ony	-1914
▁jour	-1915
▁seem	-1916
▁surround	-1917
▁ty	-1918
▁invol	-1919
ination	-1920
ogn	-1921
▁ig	-1922
▁crew	-1923
▁fair	-1924
▁apparent	-1925
ining	-1926
▁oper	-1927
▁human	-1928
▁terri	-1929
▁changed	-1930
▁glanced	-1931
▁serious	-1932
▁alex	-1933
ili	-1934
▁ce	-1935
▁surf	-1936
▁thro	-1937
▁walls	-1938
▁guards	-1939
ahan	-1940
flan	-1941
flanahan	-1942
▁protect	-1943
▁darkness	-1944
of	-1945
▁thick	-1946
▁remembered	-1947
▁crow	-1948
ply	-1949
▁force	-1950
▁children	-1951
ices	-1952
mond	-1953
aimed	-1954
▁mountain	-1955
▁smo	-1956
▁art	-1957
▁fail	-1958
▁serv	-1959
▁tent	-1960
▁flight	-1961
▁recogn	-1962
▁et	-1963
▁kay	-1964
▁class	-1965
▁questions	-1966
acks	-1967
tern	-1968
▁expect	-1969
▁hurt	-1970
▁rece	-1971
▁meant	-1972
▁wish	-1973
▁trouble	-1974
▁dave	-1975
▁mine	-1976
▁alive	-1977
▁sounds	-1978
▁creature	-1979
bs	-1980
zy	-1981
▁wild	-1982
unately	-1983
▁geron	-1984
▁energy	-1985
▁convers	-1986
iers	-1987
▁bene	-1988
▁suit	-1989
▁seconds	-1990
asure	-1991
▁capt	-1992
▁mill	-1993
▁shirt	-1994
▁escape	-1995
▁headed	-1996
▁partic	-1997
▁eventually	-1998
▁disappeared	-1999
hered	-2000
▁stri	-2001
▁women	-2002
▁beside	-2003
▁evening	-2004
▁surprised	-2005
ug	-2006
end	-2007
imes	-2008
▁pier	-2009
▁makes	-2010
▁shadow	-2011
▁comfort	-2012
▁managed	-2013
▁key	-2014
▁weap	-2015
ffect	-2016
▁surv	-2017
▁nancy	-2018
▁norm	-2019
bed	-2020
how	-2021
▁mir	-2022
▁bull	-2023
▁snow	-2024
▁certainly	-2025
ats	-2026
ofric	-2027
▁rese	-2028
▁raised	-2029
▁leofric	-2030
▁supposed	-2031
rig	-2032
aped	-2033
▁phot	-2034
▁tares	-2035
▁clothes	-2036
▁despite	-2037
cri	-2038
▁fav	-2039
▁wound	-2040
ression	-2041
▁minute	-2042
▁seeing	-2043
▁present	-2044
▁slightly	-2045
oth	-2046
▁ur	-2047
▁shut	-2048
▁speed	-2049
▁accept	-2050
▁raymond	-2051
▁explained	-2052
▁themselves	-2053
cent	-2054
▁malcol	-2055
▁exam	-2056
▁kitche	-2057
▁nor	-2058
▁anci	-2059
▁const	-2060
▁effect	-2061
orn	-2062
icha	-2063
▁gas	-2064
▁sam	-2065
▁stret	-2066
ution	-2067
▁quietly	-2068
▁coffe	-2069
▁flying	-2070
▁knowing	-2071
ety	-2072
▁kno	-2073
▁lit	-2074
cious	-2075
▁isnt	-2076
▁shes	-2077
▁micha	-2078
▁tomorrow	-2079
ai	-2080
sa	-2081
▁lab	-2082
yond	-2083
▁rev	-2084
▁tow	-2085
apped	-2086
▁sens	-2087
isk	-2088
▁er	-2089
aint	-2090
▁mass	-2091
▁paul	-2092
▁beyond	-2093
▁stared	-2094
▁theyre	-2095
night	-2096
▁base	-2097
▁cool	-2098
▁entr	-2099
▁wife	-2100
▁wizard	-2101
▁mach	-2102
▁piece	-2103
▁single	-2104
▁di	-2105
▁noah	-2106
▁silent	-2107
▁kitchen	-2108
▁obviously	-2109
▁wing	-2110
▁relie	-2111
▁battle	-2112
▁coffee	-2113
aff	-2114
amed	-2115
▁stup	-2116
▁tall	-2117
▁clean	-2118
▁telling	-2119
▁lim	-2120
▁pan	-2121
orted	-2122
▁pock	-2123
▁super	-2124
bers	-2125
▁fro	-2126
▁youll	-2127
▁effort	-2128
▁carefully	-2129
ips	-2130
▁nar	-2131
▁lad	-2132
▁law	-2133
▁remo	-2134
▁paper	-2135
▁wings	-2136
▁south	-2137
▁somehow	-2138
▁die	-2139
▁army	-2140
▁boys	-2141
▁tired	-2142
▁destro	-2143
▁engine	-2144
▁turning	-2145
▁wearing	-2146
ges	-2147
▁spl	-2148
▁desk	-2149
▁none	-2150
cially	-2151
▁emily	-2152
▁roberto	-2153
▁surprise	-2154
▁cart	-2155
▁board	-2156
▁fut	-2157
▁somewhere	-2158
cing	-2159
▁grin	-2160
▁govern	-2161
▁damn	-2162
▁mark	-2163
▁compl	-2164
▁mention	-2165
▁raymonde	-2166
velo	-2167
▁max	-2168
oming	-2169
▁chee	-2170
▁approached	-2171
▁mad	-2172
▁une	-2173
▁rele	-2174
gr	-2175
▁arg	-2176
▁sire	-2177
bert	-2178
▁pet	-2179
▁sig	-2180
▁mountains	-2181
▁pil	-2182
res	-2183
right	-2184
icking	-2185
idence	-2186
▁expected	-2187
▁among	-2188
ously	-2189
▁pract	-2190
▁handed	-2191
▁history	-2192
▁shoot	-2193
▁mission	-2194
▁pub	-2195
▁calm	-2196
▁hole	-2197
▁note	-2198
▁lying	-2199
▁tears	-2200
▁diffic	-2201
▁stupid	-2202
▁dep	-2203
▁lie	-2204
▁maj	-2205
itely	-2206
▁contact	-2207
ork	-2208
▁briar	-2209
▁jumped	-2210
▁leaned	-2211
oring	-2212
alth	-2213
▁afterno	-2214
▁cop	-2215
▁malcolm	-2216
▁glad	-2217
▁lives	-2218
▁beginning	-2219
raid	-2220
▁mat	-2221
▁throat	-2222
▁surface	-2223
▁hosp	-2224
ishing	-2225
▁shoulders	-2226
co	-2227
lic	-2228
ikol	-2229
ores	-2230
▁nikol	-2231
▁afraid	-2232
▁easily	-2233
▁thirty	-2234
▁accom	-2235
▁lived	-2236
▁master	-2237
▁necess	-2238
▁possib	-2239
▁4	-2240
rence	-2241
▁news	-2242
▁happen	-2243
▁itself	-2244
isf	-2245
▁nose	-2246
▁quar	-2247
▁means	-2248
▁yourself	-2249
▁sometimes	-2250
ee	-2251
ality	-2252
▁wand	-2253
▁weak	-2254
▁broke	-2255
itch	-2256
▁ack	-2257
flowers	-2258
▁explain	-2259
▁moments	-2260
▁doctor	-2261
▁stairs	-2262
▁conversation	-2263
▁ice	-2264
▁espe	-2265
▁space	-2266
▁police	-2267
▁afternoon	-2268
ded	-2269
ury	-2270
zen	-2271
▁dru	-2272
▁hat	-2273
▁third	-2274
▁barely	-2275
▁unfort	-2276
▁entrance	-2277
▁age	-2278
▁foc	-2279
▁spec	-2280
▁defin	-2281
▁remained	-2282
▁especially	-2283
amp	-2284
▁deck	-2285
▁loved	-2286
▁often	-2287
▁giving	-2288
▁ancient	-2289
▁soldiers	-2290
▁apparently	-2291
ude	-2292
▁grow	-2293
▁blank	-2294
▁future	-2295
▁lee	-2296
▁comes	-2297
▁remind	-2298
▁charlie	-2299
▁priv	-2300
▁stick	-2301
▁throw	-2302
▁strugg	-2303
▁allowed	-2304
▁fflowers	-2305
use	-2306
aling	-2307
▁shouted	-2308
lish	-2309
▁civ	-2310
▁eda	-2311
▁spir	-2312
▁detail	-2313
▁spread	-2314
ural	-2315
▁tot	-2316
▁anim	-2317
▁cave	-2318
▁check	-2319
▁metal	-2320
▁forget	-2321
eed	-2322
▁spy	-2323
▁wra	-2324
iliar	-2325
▁cabin	-2326
▁magic	-2327
attered	-2328
ries	-2329
ified	-2330
▁drive	-2331
▁satisf	-2332
▁simply	-2333
▁game	-2334
▁brief	-2335
▁motion	-2336
▁connect	-2337
▁experience	-2338
fer	-2339
ump	-2340
▁drink	-2341
▁lang	-2342
▁trave	-2343
▁michael	-2344
▁fit	-2345
▁scr	-2346
▁grew	-2347
▁assum	-2348
▁narrow	-2349
▁thanks	-2350
▁company	-2351
ceed	-2352
▁repe	-2353
▁doors	-2354
▁staff	-2355
▁connie	-2356
▁forest	-2357
▁proper	-2358
ians	-2359
▁hey	-2360
ional	-2361
aughter	-2362
▁invest	-2363
▁bank	-2364
▁stom	-2365
ky	-2366
▁pad	-2367
▁rope	-2368
▁obser	-2369
▁opening	-2370
▁tu	-2371
▁rap	-2372
unity	-2373
▁hide	-2374
▁scre	-2375
▁turs	-2376
▁doubt	-2377
▁hesit	-2378
▁youve	-2379
▁comput	-2380
▁pocket	-2381
▁station	-2382
▁mrs	-2383
▁ball	-2384
▁pack	-2385
▁succ	-2386
▁catch	-2387
▁touch	-2388
▁directly	-2389
ager	-2390
▁bow	-2391
▁var	-2392
olute	-2393
▁shru	-2394
▁final	-2395
▁shall	-2396
▁continue	-2397
ief	-2398
ades	-2399
come	-2400
▁nah	-2401
overed	-2402
▁threw	-2403
ism	-2404
ona	-2405
port	-2406
laimed	-2407
go	-2408
stem	-2409
▁rosa	-2410
▁stren	-2411
▁showed	-2412
▁threat	-2413
▁aff	-2414
tered	-2415
▁ears	-2416
▁level	-2417
▁woods	-2418
▁center	-2419
▁hospital	-2420
▁dangerous	-2421
issa	-2422
▁dut	-2423
▁jer	-2424
▁pop	-2425
▁wed	-2426
▁agree	-2427
▁built	-2428
riel	-2429
▁bridge	-2430
▁lifted	-2431
▁likely	-2432
▁stream	-2433
▁gabriel	-2434
cr	-2435
▁19	-2436
▁moon	-2437
▁learn	-2438
▁choice	-2439
▁record	-2440
▁emb	-2441
itary	-2442
▁slid	-2443
icated	-2444
ration	-2445
▁nature	-2446
▁rolled	-2447
▁turson	-2448
▁obvious	-2449
▁fa	-2450
urity	-2451
▁worse	-2452
▁lights	-2453
▁simple	-2454
▁system	-2455
▁nikolai	-2456
und	-2457
more	-2458
▁myster	-2459
▁paused	-2460
▁search	-2461
▁charles	-2462
▁laughing	-2463
ledge	-2464
▁gaze	-2465
▁orig	-2466
▁corre	-2467
▁occas	-2468
que	-2469
▁growing	-2470
▁officer	-2471
▁cast	-2472
▁purp	-2473
▁dressed	-2474
▁interrupt	-2475
aur	-2476
▁gent	-2477
umbled	-2478
▁noise	-2479
▁absolute	-2480
bor	-2481
▁mis	-2482
▁van	-2483
▁fresh	-2484
▁learned	-2485
▁dia	-2486
▁pen	-2487
▁sick	-2488
▁hoped	-2489
▁local	-2490
▁forced	-2491
inal	-2492
▁suv	-2493
inted	-2494
▁auth	-2495
▁cell	-2496
▁knife	-2497
▁respond	-2498
▁involved	-2499
eg	-2500
▁vi	-2501
▁dar	-2502
▁beneath	-2503
▁keeping	-2504
▁pulling	-2505
ormed	-2506
▁gets	-2507
▁laid	-2508
▁prev	-2509
▁missing	-2510
▁subject	-2511
over	-2512
▁jud	-2513
wards	-2514
▁lake	-2515
▁aware	-2516
▁liked	-2517
▁difficult	-2518
▁spr	-2519
usted	-2520
▁emer	-2521
▁stro	-2522
▁tech	-2523
▁reach	-2524
▁resear	-2525
▁travel	-2526
▁herbert	-2527
▁picture	-2528
▁profess	-2529
▁necessary	-2530
▁pot	-2531
▁shit	-2532
▁cause	-2533
▁definitely	-2534
▁particular	-2535
dom	-2536
▁displ	-2537
▁finger	-2538
▁brothers	-2539
▁dan	-2540
▁est	-2541
▁slo	-2542
▁civil	-2543
▁worth	-2544
▁gar	-2545
ively	-2546
▁deter	-2547
▁staring	-2548
▁security	-2549
atic	-2550
▁hus	-2551
rench	-2552
▁fish	-2553
▁seven	-2554
▁includ	-2555
▁weight	-2556
uc	-2557
▁ben	-2558
retat	-2559
▁fred	-2560
▁pray	-2561
▁save	-2562
▁send	-2563
▁sharp	-2564
▁demand	-2565
▁helped	-2566
▁notice	-2567
▁sounded	-2568
▁phys	-2569
▁port	-2570
▁self	-2571
▁party	-2572
inc	-2573
▁wel	-2574
▁lind	-2575
▁offe	-2576
▁cliff	-2577
▁major	-2578
▁scient	-2579
▁process	-2580
▁slipped	-2581
▁whether	-2582
yal	-2583
iment	-2584
▁rose	-2585
▁carol	-2586
▁incre	-2587
▁miles	-2588
▁surely	-2589
▁climbed	-2590
asing	-2591
▁earl	-2592
▁flew	-2593
▁produ	-2594
▁storm	-2595
▁gentle	-2596
▁etretat	-2597
▁meeting	-2598
▁monster	-2599
▁stomach	-2600
▁success	-2601
do	-2602
don	-2603
eth	-2604
son	-2605
▁rif	-2606
▁beat	-2607
▁jenn	-2608
▁suff	-2609
▁brown	-2610
▁older	-2611
▁kaylie	-2612
▁dig	-2613
▁glo	-2614
▁alma	-2615
▁sail	-2616
▁angry	-2617
▁gently	-2618
▁talked	-2619
▁sus	-2620
▁siren	-2621
▁object	-2622
▁comment	-2623
▁powerful	-2624
▁prepared	-2625
▁pu	-2626
▁bab	-2627
▁abby	-2628
▁heat	-2629
▁hors	-2630
▁kids	-2631
▁rain	-2632
▁tiny	-2633
▁track	-2634
▁cassey	-2635
▁develo	-2636
▁wooden	-2637
▁removed	-2638
hic	-2639
ica	-2640
▁stuck	-2641
▁carried	-2642
▁glasses	-2643
▁post	-2644
▁appear	-2645
▁driver	-2646
▁instru	-2647
▁discuss	-2648
▁daughter	-2649
▁personal	-2650
▁starting	-2651
▁knowledge	-2652
▁goes	-2653
▁letter	-2654
▁unfortunately	-2655
▁emot	-2656
▁rich	-2657
▁listen	-2658
▁imagine	-2659
aked	-2660
▁dry	-2661
▁nav	-2662
▁sar	-2663
▁cram	-2664
▁drop	-2665
▁numb	-2666
▁elect	-2667
▁extra	-2668
▁journey	-2669
dies	-2670
▁fix	-2671
▁poor	-2672
▁display	-2673
▁machine	-2674
▁playing	-2675
▁suggested	-2676
hip	-2677
lls	-2678
par	-2679
band	-2680
▁ride	-2681
▁refle	-2682
▁strength	-2683
acy	-2684
ien	-2685
▁arr	-2686
▁ign	-2687
using	-2688
▁missy	-2689
▁takes	-2690
▁gotten	-2691
▁sister	-2692
▁familiar	-2693
▁military	-2694
▁ark	-2695
▁insp	-2696
▁organ	-2697
▁vehic	-2698
▁hiding	-2699
▁indeed	-2700
▁general	-2701
▁computer	-2702
▁exclaimed	-2703
onic	-2704
▁flat	-2705
▁oppos	-2706
sidered	-2707
▁descri	-2708
▁horses	-2709
▁screen	-2710
▁training	-2711
▁hig	-2712
▁pou	-2713
ulfst	-2714
▁mans	-2715
▁lower	-2716
▁author	-2717
▁depart	-2718
▁remain	-2719
▁neither	-2720
▁investig	-2721
mas	-2722
ading	-2723
▁test	-2724
▁burst	-2725
▁fifty	-2726
▁earlier	-2727
▁fifteen	-2728
▁shadows	-2729
▁sirenne	-2730
▁usually	-2731
▁considered	-2732
men	-2733
▁vict	-2734
▁anger	-2735
▁rough	-2736
athered	-2737
▁vol	-2738
▁busy	-2739
▁roof	-2740
inking	-2741
▁bound	-2742
▁sides	-2743
▁jason	-2744
con	-2745
val	-2746
▁din	-2747
▁sem	-2748
▁drew	-2749
▁tied	-2750
▁nahum	-2751
▁consider	-2752
▁5	-2753
kes	-2754
oned	-2755
▁bal	-2756
▁len	-2757
▁viol	-2758
▁allow	-2759
▁drove	-2760
▁normal	-2761
▁jake	-2762
▁colon	-2763
▁exist	-2764
▁ackers	-2765
▁wulfst	-2766
▁husband	-2767
ls	-2768
net	-2769
urch	-2770
bbing	-2771
ective	-2772
▁advent	-2773
▁havent	-2774
▁ul	-2775
iles	-2776
like	-2777
▁bol	-2778
▁gray	-2779
▁jess	-2780
▁ring	-2781
▁knees	-2782
▁shift	-2783
amb	-2784
ises	-2785
▁avo	-2786
▁gro	-2787
▁appre	-2788
▁pants	-2789
▁leading	-2790
fast	-2791
line	-2792
otten	-2793
▁enter	-2794
▁wests	-2795
▁action	-2796
▁determ	-2797
▁opport	-2798
▁pierre	-2799
▁hanging	-2800
▁gem	-2801
▁dear	-2802
▁farm	-2803
▁impo	-2804
▁rear	-2805
▁dress	-2806
▁harry	-2807
▁relief	-2808
▁stayed	-2809
▁settled	-2810
▁ry	-2811
inct	-2812
▁suvan	-2813
▁ver	-2814
▁enem	-2815
▁grey	-2816
▁deser	-2817
▁ended	-2818
▁summer	-2819
▁purpose	-2820
▁shaking	-2821
gging	-2822
▁prop	-2823
▁unif	-2824
▁favor	-2825
▁events	-2826
▁reading	-2827
▁expression	-2828
▁cru	-2829
▁mid	-2830
▁cham	-2831
▁arrow	-2832
▁brain	-2833
▁sweet	-2834
▁handle	-2835
▁report	-2836
▁larissa	-2837
▁dw	-2838
sing	-2839
▁fal	-2840
ounced	-2841
▁colle	-2842
▁loose	-2843
▁confir	-2844
▁immort	-2845
▁sleeping	-2846
bur	-2847
uing	-2848
▁aut	-2849
▁jac	-2850
▁tax	-2851
iders	-2852
▁guest	-2853
▁respons	-2854
▁touched	-2855
▁interesting	-2856
itions	-2857
▁forth	-2858
▁lucky	-2859
▁susan	-2860
▁hitler	-2861
▁sighed	-2862
▁passing	-2863
▁tonight	-2864
itten	-2865
ground	-2866
▁extre	-2867
▁smooth	-2868
▁careful	-2869
▁fighting	-2870
pes	-2871
▁pair	-2872
▁resc	-2873
▁coast	-2874
▁werent	-2875
▁english	-2876
▁message	-2877
▁american	-2878
▁received	-2879
▁seriously	-2880
▁dim	-2881
▁saf	-2882
ainer	-2883
▁musc	-2884
▁park	-2885
▁joined	-2886
▁vision	-2887
▁driving	-2888
▁pressed	-2889
let	-2890
▁task	-2891
▁activ	-2892
▁radio	-2893
▁church	-2894
▁imposs	-2895
rid	-2896
▁cott	-2897
▁perf	-2898
▁pill	-2899
▁soul	-2900
▁plans	-2901
▁wheel	-2902
▁hardly	-2903
lock	-2904
▁comb	-2905
▁gather	-2906
▁finding	-2907
▁studied	-2908
▁research	-2909
arr	-2910
▁unf	-2911
▁grass	-2912
▁uncle	-2913
▁golden	-2914
▁silver	-2915
▁correct	-2916
▁crossed	-2917
▁willing	-2918
▁windows	-2919
af	-2920
ano	-2921
▁tru	-2922
izing	-2923
▁slam	-2924
▁plant	-2925
▁teeth	-2926
ational	-2927
ern	-2928
nds	-2929
▁emp	-2930
▁scar	-2931
▁turns	-2932
▁killer	-2933
▁nobody	-2934
▁worried	-2935
▁wulfstan	-2936
cho	-2937
eder	-2938
usion	-2939
▁exte	-2940
▁ident	-2941
▁skill	-2942
▁nearby	-2943
▁offered	-2944
▁understood	-2945
sed	-2946
rodu	-2947
▁shop	-2948
▁crack	-2949
▁equip	-2950
▁faces	-2951
▁pound	-2952
▁locked	-2953
▁suppose	-2954
▁ban	-2955
▁coo	-2956
acher	-2957
▁fold	-2958
▁grad	-2959
▁rang	-2960
▁smart	-2961
▁wants	-2962
▁support	-2963
old	-2964
▁pit	-2965
▁und	-2966
▁ways	-2967
▁horri	-2968
▁shore	-2969
▁medical	-2970
▁movement	-2971
por	-2972
uct	-2973
azed	-2974
▁crowd	-2975
▁study	-2976
▁fellow	-2977
▁service	-2978
▁equipment	-2979
▁listening	-2980
▁shed	-2981
ashing	-2982
▁color	-2983
▁double	-2984
▁fallen	-2985
▁yelled	-2986
▁fathers	-2987
▁heading	-2988
▁smiling	-2989
▁opportunity	-2990
▁ut	-2991
▁sen	-2992
▁enjoy	-2993
▁image	-2994
▁shape	-2995
▁places	-2996
▁result	-2997
▁current	-2998
▁gathered	-2999
dge	-3000
case	-3001
▁fat	-3002
▁tone	-3003
▁target	-3004
▁breakfast	-3005
die	-3006
▁map	-3007
cture	-3008
ption	-3009
▁bent	-3010
▁dick	-3011
▁chuck	-3012
▁asking	-3013
▁nahumik	-3014
▁commander	-3015
▁impossible	-3016
▁scene	-3017
▁contents	-3018
abb	-3019
aqu	-3020
ral	-3021
▁ap	-3022
▁hy	-3023
▁jew	-3024
▁ryan	-3025
▁tour	-3026
▁relax	-3027
▁memory	-3028
▁carrying	-3029
▁apartment	-3030
▁wondering	-3031
roud	-3032
▁jim	-3033
▁band	-3034
▁bath	-3035
▁lose	-3036
▁ment	-3037
▁flash	-3038
▁merro	-3039
▁robot	-3040
▁twice	-3041
▁arkham	-3042
▁convin	-3043
▁played	-3044
▁besides	-3045
▁collect	-3046
▁falling	-3047
▁streets	-3048
▁interested	-3049
▁bas	-3050
▁inj	-3051
ature	-3052
▁copy	-3053
▁hate	-3054
▁nerv	-3055
▁push	-3056
▁amount	-3057
▁scared	-3058
▁leather	-3059
▁believed	-3060
▁opposite	-3061
▁interrupted	-3062
▁joy	-3063
▁flag	-3064
▁join	-3065
ipping	-3066
▁charac	-3067
▁circle	-3068
▁french	-3069
▁speaking	-3070
▁absolutely	-3071
nie	-3072
arily	-3073
ument	-3074
▁paid	-3075
▁rocks	-3076
▁trunk	-3077
▁bodies	-3078
▁presence	-3079
icks	-3080
itty	-3081
ctions	-3082
▁faint	-3083
▁desper	-3084
▁safety	-3085
▁realize	-3086
▁forgotten	-3087
esh	-3088
udd	-3089
omed	-3090
▁lou	-3091
▁odd	-3092
arden	-3093
▁defe	-3094
▁firm	-3095
▁prec	-3096
▁store	-3097
▁bloody	-3098
▁landed	-3099
▁valley	-3100
▁rum	-3101
▁spo	-3102
▁aime	-3103
▁admit	-3104
▁dozen	-3105
▁shock	-3106
▁usual	-3107
▁caused	-3108
▁dinner	-3109
▁forever	-3110
▁landing	-3111
▁hi	-3112
▁ow	-3113
▁doll	-3114
▁exha	-3115
▁kevin	-3116
▁langu	-3117
▁peace	-3118
▁higher	-3119
▁hoping	-3120
▁account	-3121
▁extreme	-3122
▁decision	-3123
▁screamed	-3124
▁government	-3125
ium	-3126
chan	-3127
▁les	-3128
▁meters	-3129
▁missed	-3130
▁written	-3131
▁discovered	-3132
ilar	-3133
ival	-3134
▁fil	-3135
▁pun	-3136
▁wet	-3137
anged	-3138
▁east	-3139
▁host	-3140
▁inno	-3141
▁weve	-3142
▁greet	-3143
▁proud	-3144
▁public	-3145
▁members	-3146
▁mentioned	-3147
wh	-3148
▁ens	-3149
board	-3150
▁cost	-3151
▁isra	-3152
▁russ	-3153
▁avail	-3154
▁mater	-3155
▁rooms	-3156
▁putting	-3157
asm	-3158
igg	-3159
▁ble	-3160
▁fle	-3161
▁hol	-3162
▁ine	-3163
▁pir	-3164
azing	-3165
▁jump	-3166
▁type	-3167
▁giant	-3168
▁spend	-3169
▁sweat	-3170
▁swens	-3171
▁waters	-3172
▁checked	-3173
▁village	-3174
ids	-3175
une	-3176
▁du	-3177
miss	-3178
ogra	-3179
▁bat	-3180
astic	-3181
rated	-3182
▁feed	-3183
▁mechan	-3184
▁softly	-3185
▁private	-3186
nal	-3187
▁bay	-3188
▁lat	-3189
▁jaqu	-3190
action	-3191
▁beach	-3192
▁separ	-3193
▁israel	-3194
▁mostly	-3195
▁pieces	-3196
▁wished	-3197
▁promise	-3198
▁soldier	-3199
▁wrapped	-3200
▁terrible	-3201
cul	-3202
ses	-3203
leep	-3204
uten	-3205
aning	-3206
▁evil	-3207
▁lara	-3208
▁reen	-3209
▁asleep	-3210
▁ramona	-3211
▁attract	-3212
▁respect	-3213
▁stories	-3214
▁breathing	-3215
▁buildings	-3216
ico	-3217
uit	-3218
▁hen	-3219
▁clou	-3220
▁lines	-3221
▁incred	-3222
▁ordered	-3223
▁weapons	-3224
▁accident	-3225
▁aim	-3226
▁due	-3227
▁conv	-3228
▁fuel	-3229
▁birth	-3230
▁reply	-3231
▁jaquan	-3232
▁spring	-3233
▁answers	-3234
▁anymore	-3235
▁swenson	-3236
▁welcome	-3237
▁possibly	-3238
mm	-3239
olog	-3240
▁harm	-3241
▁camera	-3242
▁states	-3243
▁clearly	-3244
ina	-3245
the	-3246
zed	-3247
lies	-3248
▁rom	-3249
▁craw	-3250
▁pale	-3251
▁lands	-3252
▁rifle	-3253
▁kissed	-3254
▁unless	-3255
▁reenact	-3256
▁suggest	-3257
▁pointing	-3258
▁surrounded	-3259
key	-3260
▁den	-3261
▁wis	-3262
▁mart	-3263
▁crazy	-3264
▁desce	-3265
▁music	-3266
▁truly	-3267
ipp	-3268
cher	-3269
▁buy	-3270
▁cup	-3271
▁net	-3272
ivers	-3273
▁disp	-3274
▁whose	-3275
ization	-3276
▁vallin	-3277
▁winter	-3278
▁becoming	-3279
▁confeder	-3280
▁listened	-3281
▁cy	-3282
ires	-3283
▁doc	-3284
ables	-3285
▁pist	-3286
▁stal	-3287
▁smoke	-3288
▁appreci	-3289
▁figured	-3290
▁lieuten	-3291
▁reaching	-3292
▁perfectly	-3293
▁x	-3294
▁dirt	-3295
▁lock	-3296
▁prog	-3297
▁scra	-3298
▁size	-3299
▁teen	-3300
▁trap	-3301
▁lunch	-3302
▁needs	-3303
▁natural	-3304
▁whisper	-3305
▁material	-3306
▁comfortable	-3307
ams	-3308
▁lu	-3309
ency	-3310
▁dog	-3311
▁mere	-3312
▁cheek	-3313
▁royal	-3314
▁bottle	-3315
▁cramer	-3316
▁suspic	-3317
▁weather	-3318
▁writing	-3319
▁shrugged	-3320
▁stretched	-3321
occ	-3322
▁uns	-3323
▁hous	-3324
▁song	-3325
father	-3326
▁assist	-3327
▁passen	-3328
▁rushed	-3329
cil	-3330
hood	-3331
▁rout	-3332
▁wore	-3333
▁aside	-3334
▁faster	-3335
▁regard	-3336
▁stated	-3337
▁jessica	-3338
▁killing	-3339
ancing	-3340
▁common	-3341
▁leaves	-3342
▁weapon	-3343
▁excited	-3344
▁introdu	-3345
▁kingdom	-3346
▁bird	-3347
▁born	-3348
▁previous	-3349
▁repeated	-3350
▁remaining	-3351
bel	-3352
ented	-3353
▁cook	-3354
▁heads	-3355
▁pilot	-3356
▁corrid	-3357
▁norton	-3358
▁terror	-3359
▁grandfather	-3360
ida	-3361
▁iss	-3362
▁disg	-3363
▁rise	-3364
▁names	-3365
▁offer	-3366
▁spell	-3367
▁waved	-3368
▁charge	-3369
▁length	-3370
▁spirit	-3371
▁somebody	-3372
ivid	-3373
▁amb	-3374
▁mud	-3375
▁rub	-3376
erson	-3377
▁gema	-3378
▁neigh	-3379
▁creatures	-3380
▁instantly	-3381
ena	-3382
▁sid	-3383
urred	-3384
▁betr	-3385
▁angel	-3386
▁hurry	-3387
▁intell	-3388
▁orders	-3389
▁various	-3390
▁revealed	-3391
nes	-3392
▁mel	-3393
▁frown	-3394
▁tainer	-3395
▁reminded	-3396
ara	-3397
▁libr	-3398
▁pool	-3399
▁whom	-3400
▁yard	-3401
▁afric	-3402
▁fully	-3403
▁finish	-3404
▁naitty	-3405
hy	-3406
ship	-3407
▁fer	-3408
▁non	-3409
▁ted	-3410
itive	-3411
▁pole	-3412
▁aimee	-3413
▁forty	-3414
▁solom	-3415
▁clouds	-3416
▁failed	-3417
▁silently	-3418
ula	-3419
▁lap	-3420
▁hack	-3421
iently	-3422
lessly	-3423
▁occup	-3424
▁desert	-3425
▁larger	-3426
▁pistol	-3427
▁problems	-3428
▁responded	-3429
ume	-3430
▁idi	-3431
umped	-3432
▁swim	-3433
▁tast	-3434
▁saved	-3435
▁fought	-3436
▁health	-3437
▁feelings	-3438
▁6	-3439
ayed	-3440
▁wip	-3441
igned	-3442
▁grip	-3443
▁sigh	-3444
▁thom	-3445
▁squee	-3446
▁manner	-3447
▁struck	-3448
▁unlike	-3449
▁married	-3450
ua	-3451
▁row	-3452
▁echo	-3453
▁page	-3454
▁polit	-3455
▁share	-3456
▁worst	-3457
▁calling	-3458
▁curious	-3459
▁prissis	-3460
▁lieutenant	-3461
mon	-3462
rie	-3463
hern	-3464
▁moo	-3465
▁pin	-3466
ially	-3467
▁unex	-3468
▁wine	-3469
omfort	-3470
▁drift	-3471
▁plain	-3472
▁purch	-3473
▁ceiling	-3474
▁college	-3475
▁reality	-3476
ob	-3477
nels	-3478
illed	-3479
itude	-3480
▁drag	-3481
▁tong	-3482
▁funny	-3483
▁horiz	-3484
▁steel	-3485
▁circum	-3486
▁jennie	-3487
▁america	-3488
▁evidence	-3489
▁merrodon	-3490
▁released	-3491
▁christmas	-3492
ndon	-3493
▁don	-3494
▁log	-3495
aming	-3496
▁corn	-3497
▁guns	-3498
▁scan	-3499
▁cloud	-3500
▁concent	-3501
▁destroy	-3502
▁tightly	-3503
▁twisted	-3504
▁searching	-3505
▁lif	-3506
▁frank	-3507
▁burning	-3508
▁doorway	-3509
▁regular	-3510
▁teacher	-3511
▁satisfied	-3512
ixt	-3513
ope	-3514
rage	-3515
▁flu	-3516
▁tur	-3517
▁cand	-3518
▁gate	-3519
▁drawn	-3520
▁leader	-3521
▁enjoyed	-3522
▁passage	-3523
▁vehicle	-3524
▁available	-3525
▁mc	-3526
wise	-3527
▁rot	-3528
▁gall	-3529
▁golf	-3530
▁games	-3531
▁papers	-3532
▁yellow	-3533
▁bedroom	-3534
▁wizards	-3535
com	-3536
pse	-3537
▁fol	-3538
▁rul	-3539
atory	-3540
apping	-3541
▁boats	-3542
▁perio	-3543
▁swall	-3544
▁trick	-3545
▁counter	-3546
▁shooting	-3547
po	-3548
▁raf	-3549
▁gest	-3550
▁toss	-3551
ensive	-3552
▁arent	-3553
▁stair	-3554
▁upper	-3555
▁flames	-3556
▁7	-3557
aret	-3558
▁elk	-3559
▁sne	-3560
▁baby	-3561
▁buck	-3562
▁sour	-3563
▁thor	-3564
inated	-3565
▁broad	-3566
▁grown	-3567
▁plane	-3568
▁range	-3569
▁needle	-3570
▁shower	-3571
▁escaped	-3572
▁possess	-3573
▁including	-3574
eps	-3575
kolo	-3576
mund	-3577
▁lon	-3578
asant	-3579
ghter	-3580
kolov	-3581
▁chin	-3582
▁coat	-3583
▁necr	-3584
▁pure	-3585
▁antic	-3586
▁prefer	-3587
▁cottage	-3588
▁mystery	-3589
▁sokolov	-3590
▁laughter	-3591
ils	-3592
▁ber	-3593
▁dom	-3594
asons	-3595
▁date	-3596
▁blade	-3597
▁frust	-3598
▁commun	-3599
▁marial	-3600
▁christy	-3601
▁details	-3602
▁mothers	-3603
▁numbers	-3604
▁bringing	-3605
▁memories	-3606
▁convinced	-3607
▁returning	-3608
▁20	-3609
▁pow	-3610
▁rabb	-3611
▁robb	-3612
stairs	-3613
▁blind	-3614
▁bunch	-3615
▁flesh	-3616
▁shoes	-3617
▁works	-3618
▁excite	-3619
▁anywhere	-3620
sy	-3621
▁9	-3622
hel	-3623
ify	-3624
nam	-3625
▁uh	-3626
▁sav	-3627
▁ves	-3628
eless	-3629
▁chat	-3630
▁daeg	-3631
▁lung	-3632
▁ships	-3633
ulation	-3634
▁lesade	-3635
▁morocc	-3636
▁pushing	-3637
▁solomon	-3638
▁daegmund	-3639
▁recently	-3640
omes	-3641
▁wit	-3642
allen	-3643
▁club	-3644
▁coun	-3645
▁cust	-3646
▁dawn	-3647
▁hotel	-3648
▁treat	-3649
▁decide	-3650
▁colonel	-3651
▁inspect	-3652
▁americans	-3653
▁excitement	-3654
ule	-3655
▁eyeb	-3656
▁gear	-3657
▁meal	-3658
▁nath	-3659
▁faced	-3660
▁plate	-3661
▁series	-3662
▁totally	-3663
▁occasion	-3664
▁promised	-3665
▁adventure	-3666
rel	-3667
uts	-3668
▁mov	-3669
▁dani	-3670
▁cried	-3671
▁fired	-3672
▁freed	-3673
▁named	-3674
▁screw	-3675
▁yards	-3676
▁eating	-3677
▁mutans	-3678
▁rising	-3679
▁united	-3680
▁hallway	-3681
▁horizon	-3682
▁million	-3683
▁condition	-3684
▁connection	-3685
kn	-3686
well	-3687
▁rid	-3688
▁fate	-3689
▁swing	-3690
▁write	-3691
ilities	-3692
▁belong	-3693
▁cheeks	-3694
▁humans	-3695
▁hungry	-3696
▁kicked	-3697
▁yester	-3698
▁created	-3699
▁eyebrow	-3700
▁hurried	-3701
arm	-3702
icop	-3703
▁haw	-3704
▁mex	-3705
▁wol	-3706
agger	-3707
uller	-3708
▁boss	-3709
▁gras	-3710
▁pace	-3711
▁tail	-3712
tering	-3713
▁semad	-3714
▁waves	-3715
▁helicop	-3716
▁letting	-3717
▁lowered	-3718
▁project	-3719
▁anderson	-3720
▁demanded	-3721
issm	-3722
uted	-3723
▁egg	-3724
house	-3725
▁loss	-3726
▁mike	-3727
▁plus	-3728
▁beard	-3729
▁yours	-3730
itional	-3731
▁bullet	-3732
▁square	-3733
▁weissm	-3734
▁distant	-3735
▁intended	-3736
▁yesterday	-3737
▁weissmuller	-3738
pan	-3739
gers	-3740
kins	-3741
oose	-3742
▁pred	-3743
▁begun	-3744
▁maria	-3745
▁explos	-3746
▁sevent	-3747
▁steady	-3748
▁hearing	-3749
▁nowhere	-3750
▁pictures	-3751
▁announced	-3752
▁ah	-3753
▁ast	-3754
▁env	-3755
▁lis	-3756
▁acqu	-3757
▁blow	-3758
▁cars	-3759
▁deli	-3760
▁brogan	-3761
▁centre	-3762
▁animals	-3763
▁hunting	-3764
▁approach	-3765
▁relations	-3766
antic	-3767
▁chief	-3768
▁desire	-3769
▁thomas	-3770
▁grinned	-3771
▁massive	-3772
▁slammed	-3773
▁officers	-3774
▁pleasure	-3775
▁practice	-3776
▁character	-3777
▁prisoners	-3778
ron	-3779
aven	-3780
onse	-3781
work	-3782
▁sty	-3783
▁tea	-3784
field	-3785
▁item	-3786
▁lack	-3787
anches	-3788
▁grave	-3789
▁blanket	-3790
▁focused	-3791
▁letters	-3792
▁mistake	-3793
▁showing	-3794
▁tunnels	-3795
▁corridor	-3796
▁photogra	-3797
▁treasure	-3798
▁concerned	-3799
▁ourselves	-3800
▁josh	-3801
▁rust	-3802
▁trad	-3803
▁twel	-3804
▁wake	-3805
▁avoid	-3806
▁rapid	-3807
▁stare	-3808
▁access	-3809
▁burned	-3810
▁glance	-3811
▁hollow	-3812
▁anticip	-3813
▁dollars	-3814
▁wonderful	-3815
ett	-3816
rit	-3817
ences	-3818
icing	-3819
▁symb	-3820
▁tele	-3821
▁backp	-3822
▁faded	-3823
▁stage	-3824
▁swung	-3825
▁mirror	-3826
▁plenty	-3827
▁assumed	-3828
▁remains	-3829
▁snapped	-3830
▁covering	-3831
▁students	-3832
▁recognized	-3833
oc	-3834
ech	-3835
▁mix	-3836
▁tops	-3837
▁unkn	-3838
▁wear	-3839
▁court	-3840
▁dying	-3841
▁button	-3842
▁period	-3843
▁rescue	-3844
▁robbie	-3845
▁individ	-3846
▁science	-3847
iday	-3848
▁alt	-3849
▁jen	-3850
▁jun	-3851
eland	-3852
▁duty	-3853
▁term	-3854
ivered	-3855
▁stars	-3856
▁facing	-3857
▁smaller	-3858
▁circumst	-3859
▁confused	-3860
▁experien	-3861
▁original	-3862
▁8	-3863
ints	-3864
▁div	-3865
▁fem	-3866
▁jes	-3867
icate	-3868
imate	-3869
▁site	-3870
▁worn	-3871
ulated	-3872
▁focus	-3873
▁concern	-3874
▁emerged	-3875
▁breaking	-3876
▁realised	-3877
we	-3878
arf	-3879
▁neg	-3880
inary	-3881
istic	-3882
▁decl	-3883
▁fuck	-3884
▁purs	-3885
▁wave	-3886
▁horror	-3887
▁ladies	-3888
▁refused	-3889
▁response	-3890
▁destroyed	-3891
aly	-3892
asy	-3893
eds	-3894
eter	-3895
▁adj	-3896
▁bul	-3897
▁mod	-3898
riage	-3899
▁meat	-3900
▁span	-3901
▁youd	-3902
▁elkano	-3903
▁formed	-3904
▁climbing	-3905
▁detective	-3906
▁otherwise	-3907
oe	-3908
ios	-3909
set	-3910
▁ham	-3911
▁pul	-3912
inion	-3913
▁jung	-3914
▁brush	-3915
▁conce	-3916
▁feels	-3917
▁judge	-3918
▁serge	-3919
▁accord	-3920
▁honest	-3921
▁knight	-3922
▁spores	-3923
▁chamber	-3924
▁disappo	-3925
▁planned	-3926
▁uniform	-3927
▁existence	-3928
eral	-3929
▁vic	-3930
alled	-3931
▁bord	-3932
▁gang	-3933
▁tick	-3934
ushing	-3935
▁block	-3936
▁bother	-3937
▁buried	-3938
▁dreams	-3939
▁height	-3940
▁symbol	-3941
▁twelve	-3942
▁language	-3943
▁connected	-3944
▁surrounding	-3945
ata	-3946
▁ya	-3947
irty	-3948
▁anx	-3949
▁butt	-3950
▁depe	-3951
▁edie	-3952
▁york	-3953
▁parts	-3954
▁steep	-3955
ibility	-3956
▁guests	-3957
▁rugged	-3958
▁settle	-3959
▁section	-3960
▁imagined	-3961
▁happening	-3962
▁approaching	-3963
▁18	-3964
rete	-3965
▁deb	-3966
▁gon	-3967
▁sex	-3968
▁vac	-3969
▁glow	-3970
▁navy	-3971
▁puzz	-3972
▁prete	-3973
▁progr	-3974
▁scrat	-3975
▁signs	-3976
▁tells	-3977
▁wrote	-3978
ruction	-3979
umbling	-3980
▁deeper	-3981
▁poured	-3982
▁challen	-3983
▁distract	-3984
▁shouldnt	-3985
▁ly	-3986
ored	-3987
▁wid	-3988
mbled	-3989
▁gift	-3990
▁knee	-3991
▁solid	-3992
▁swept	-3993
▁youth	-3994
▁embarr	-3995
▁freddie	-3996
▁semadar	-3997
▁clearing	-3998
▁extended	-3999
▁observed	-4000
▁conscious	-4001
▁extremely	-4002
▁cu	-4003
ague	-4004
ding	-4005
rate	-4006
▁coy	-4007
▁por	-4008
▁rey	-4009
▁rare	-4010
▁slee	-4011
▁vent	-4012
▁birds	-4013
▁emplo	-4014
▁impat	-4015
ference	-4016
▁bought	-4017
▁jungle	-4018
▁sidney	-4019
▁unable	-4020
▁arrival	-4021
▁encount	-4022
▁proceed	-4023
▁setting	-4024
▁suspect	-4025
▁whoever	-4026
▁younger	-4027
▁attached	-4028
▁physical	-4029
▁provided	-4030
▁embarrass	-4031
het	-4032
rib	-4033
arsh	-4034
book	-4035
▁bon	-4036
▁deg	-4037
▁ras	-4038
▁card	-4039
▁chip	-4040
▁moog	-4041
vation	-4042
▁aband	-4043
▁henry	-4044
▁rafes	-4045
▁split	-4046
▁train	-4047
▁unexp	-4048
▁chairs	-4049
▁murder	-4050
▁safely	-4051
▁stalin	-4052
▁leaning	-4053
▁request	-4054
▁similar	-4055
▁witness	-4056
▁branches	-4057
▁intellig	-4058
▁pressure	-4059
▁required	-4060
▁determined	-4061
▁everywhere	-4062
▁q	-4063
lla	-4064
nay	-4065
▁obl	-4066
ients	-4067
riend	-4068
▁aust	-4069
▁caut	-4070
▁clut	-4071
▁dept	-4072
▁dogs	-4073
▁exce	-4074
▁hero	-4075
▁mort	-4076
▁summ	-4077
▁troo	-4078
▁vide	-4079
antage	-4080
▁dirty	-4081
▁hello	-4082
▁total	-4083
▁tower	-4084
▁troub	-4085
atively	-4086
▁garden	-4087
▁harder	-4088
▁resist	-4089
▁complex	-4090
▁dragged	-4091
▁uncomfort	-4092
▁difference	-4093
▁confederate	-4094
ums	-4095
ique	-4096
itor	-4097
▁cow	-4098
▁hoo	-4099
▁huh	-4100
▁cann	-4101
▁pile	-4102
ension	-4103
ication	-4104
▁colour	-4105
▁custom	-4106
▁riding	-4107
▁century	-4108
▁collaps	-4109
▁nervous	-4110
▁pleased	-4111
▁unknown	-4112
▁admitted	-4113
▁searched	-4114
▁hopefully	-4115
▁struggled	-4116
hs	-4117
bey	-4118
fied	-4119
ords	-4120
ples	-4121
rich	-4122
▁gle	-4123
▁arch	-4124
▁dart	-4125
▁effy	-4126
▁lisa	-4127
▁sele	-4128
▁cargo	-4129
▁hills	-4130
▁lined	-4131
▁motor	-4132
▁efforts	-4133
▁sending	-4134
▁accompan	-4135
▁concrete	-4136
▁favorite	-4137
▁sergeant	-4138
rop	-4139
ault	-4140
ibly	-4141
▁kap	-4142
▁oil	-4143
▁san	-4144
▁bree	-4145
▁dock	-4146
▁risk	-4147
▁stir	-4148
▁campo	-4149
▁shell	-4150
▁forces	-4151
▁patter	-4152
▁thinks	-4153
▁victim	-4154
▁seeming	-4155
▁visible	-4156
▁accepted	-4157
▁bathroom	-4158
▁unexpected	-4159
uel	-4160
uses	-4161
▁dal	-4162
▁naz	-4163
clock	-4164
under	-4165
▁iron	-4166
▁stat	-4167
▁bread	-4168
▁claim	-4169
▁falls	-4170
▁moder	-4171
▁relig	-4172
▁easier	-4173
▁planet	-4174
▁tongue	-4175
▁council	-4176
▁location	-4177
▁throughout	-4178
eles	-4179
iant	-4180
osen	-4181
ques	-4182
riff	-4183
▁fab	-4184
▁suc	-4185
▁tie	-4186
uries	-4187
▁frag	-4188
isions	-4189
▁alice	-4190
▁eager	-4191
▁jolie	-4192
▁lindon	-4193
▁senior	-4194
▁taught	-4195
▁techno	-4196
▁closely	-4197
▁conclud	-4198
▁knocked	-4199
▁forehead	-4200
▁aud	-4201
anted	-4202
▁tony	-4203
▁boots	-4204
▁honey	-4205
▁labor	-4206
▁teddy	-4207
▁union	-4208
▁chosen	-4209
▁heavily	-4210
▁survive	-4211
▁backpack	-4212
▁hesitated	-4213
uffy	-4214
inked	-4215
iring	-4216
▁nine	-4217
▁rail	-4218
▁tort	-4219
▁enemy	-4220
▁slope	-4221
▁reluct	-4222
▁warmth	-4223
▁actions	-4224
▁explode	-4225
▁warning	-4226
▁informed	-4227
▁planning	-4228
▁fortunately	-4229
zing	-4230
▁vib	-4231
▁cock	-4232
▁educ	-4233
▁feat	-4234
▁rode	-4235
▁tank	-4236
▁fixed	-4237
▁panic	-4238
▁stern	-4239
▁warri	-4240
▁animal	-4241
▁chriss	-4242
▁groups	-4243
▁orange	-4244
▁secure	-4245
▁cleared	-4246
▁flashed	-4247
▁instant	-4248
▁succeed	-4249
▁electric	-4250
▁insisted	-4251
▁commented	-4252
orms	-4253
umed	-4254
what	-4255
▁eld	-4256
▁finn	-4257
▁grim	-4258
▁load	-4259
▁mood	-4260
▁notes	-4261
▁waist	-4262
▁intent	-4263
▁oclock	-4264
▁accompl	-4265
▁reasons	-4266
▁sheriff	-4267
▁innocent	-4268
omb	-4269
illy	-4270
pted	-4271
▁rig	-4272
▁diss	-4273
▁ling	-4274
friend	-4275
uments	-4276
▁ideas	-4277
▁reser	-4278
▁video	-4279
▁distur	-4280
▁jacket	-4281
▁joshua	-4282
▁peered	-4283
▁served	-4284
▁tracks	-4285
▁journal	-4286
▁meaning	-4287
▁allowing	-4288
▁progress	-4289
▁throwing	-4290
▁confirmed	-4291
alk	-4292
▁dug	-4293
▁lic	-4294
▁ske	-4295
▁tis	-4296
▁wil	-4297
ulous	-4298
▁joes	-4299
▁liqu	-4300
▁sali	-4301
▁slip	-4302
▁soci	-4303
▁member	-4304
▁voices	-4305
▁ability	-4306
▁assured	-4307
▁according	-4308
▁disappear	-4309
oon	-4310
▁10	-4311
▁ju	-4312
▁oce	-4313
▁tan	-4314
▁tit	-4315
aging	-4316
▁fart	-4317
▁mult	-4318
▁roll	-4319
▁soph	-4320
itched	-4321
▁blond	-4322
▁impro	-4323
▁price	-4324
▁theyd	-4325
▁waste	-4326
▁arrive	-4327
▁funeral	-4328
▁provide	-4329
▁rolling	-4330
▁discover	-4331
▁emotions	-4332
▁enjoying	-4333
▁friendly	-4334
ront	-4335
aches	-4336
▁barn	-4337
▁infl	-4338
▁sixt	-4339
▁grace	-4340
▁torch	-4341
▁dalton	-4342
▁slowed	-4343
▁arrange	-4344
▁chuckled	-4345
▁understanding	-4346
ald	-4347
▁ka	-4348
▁jaw	-4349
▁nix	-4350
▁reb	-4351
▁kapl	-4352
▁sant	-4353
itable	-4354
▁armed	-4355
▁boxes	-4356
▁concl	-4357
▁paint	-4358
▁whist	-4359
▁firmly	-4360
▁inches	-4361
▁starts	-4362
▁library	-4363
▁screaming	-4364
▁relationship	-4365
ec	-4366
▁kh	-4367
ites	-4368
▁ate	-4369
▁mas	-4370
▁sac	-4371
▁clam	-4372
▁fier	-4373
▁pink	-4374
▁spin	-4375
▁tale	-4376
▁famil	-4377
▁honor	-4378
▁spect	-4379
▁fright	-4380
▁skills	-4381
▁spoken	-4382
▁strang	-4383
▁restaur	-4384
▁drinking	-4385
▁entirely	-4386
▁scattered	-4387
ley	-4388
soci	-4389
▁der	-4390
iving	-4391
▁adam	-4392
▁belt	-4393
▁blew	-4394
▁sout	-4395
▁chain	-4396
▁dwarf	-4397
▁newsp	-4398
▁shown	-4399
▁associ	-4400
▁corpse	-4401
▁design	-4402
▁temper	-4403
▁helping	-4404
▁perform	-4405
▁trained	-4406
ification	-4407
▁clothing	-4408
▁families	-4409
▁occurred	-4410
▁exhausted	-4411
▁helicopter	-4412
▁ky	-4413
▁tam	-4414
lored	-4415
nored	-4416
▁gigg	-4417
▁init	-4418
▁inqu	-4419
▁sees	-4420
jected	-4421
▁autom	-4422
▁beast	-4423
▁canoe	-4424
▁liter	-4425
ability	-4426
▁begins	-4427
▁bigger	-4428
▁create	-4429
▁parked	-4430
▁robert	-4431
▁example	-4432
▁freedom	-4433
▁happens	-4434
▁ignored	-4435
▁newspap	-4436
▁resting	-4437
▁wanting	-4438
▁surprising	-4439
for	-4440
chie	-4441
overy	-4442
▁asks	-4443
▁diam	-4444
▁flow	-4445
▁stun	-4446
▁whos	-4447
▁allan	-4448
▁blame	-4449
▁reviv	-4450
▁sixty	-4451
itation	-4452
▁breeze	-4453
▁houses	-4454
▁address	-4455
▁checking	-4456
▁studying	-4457
▁recognize	-4458
▁thousands	-4459
aks	-4460
ras	-4461
ache	-4462
bour	-4463
isco	-4464
▁ess	-4465
▁jet	-4466
▁fash	-4467
▁unus	-4468
▁wend	-4469
iction	-4470
▁fault	-4471
▁percy	-4472
▁rever	-4473
▁batter	-4474
▁hangar	-4475
▁loaded	-4476
▁supply	-4477
▁alright	-4478
▁normally	-4479
va	-4480
ators	-4481
eping	-4482
▁anno	-4483
▁blur	-4484
▁bran	-4485
▁eyed	-4486
▁gran	-4487
▁mile	-4488
▁prim	-4489
▁stam	-4490
▁weir	-4491
▁woke	-4492
▁frame	-4493
▁hated	-4494
▁proof	-4495
▁hunter	-4496
▁mental	-4497
▁mister	-4498
▁modern	-4499
▁delight	-4500
▁program	-4501
▁shocked	-4502
▁univers	-4503
▁changing	-4504
▁maintain	-4505
bby	-4506
iere	-4507
iest	-4508
lors	-4509
aries	-4510
▁taxi	-4511
▁techn	-4512
▁excell	-4513
▁fields	-4514
▁merely	-4515
▁ulrich	-4516
▁wealth	-4517
▁kaplans	-4518
▁motioned	-4519
▁precious	-4520
cer	-4521
ipe	-4522
▁ko	-4523
▁wag	-4524
raham	-4525
▁bike	-4526
▁clue	-4527
▁exch	-4528
▁germ	-4529
▁limb	-4530
ential	-4531
▁blast	-4532
▁crane	-4533
▁slept	-4534
▁slide	-4535
▁spark	-4536
▁twist	-4537
▁damage	-4538
▁prince	-4539
▁repres	-4540
▁thrown	-4541
▁fishing	-4542
▁quarters	-4543
▁somewhat	-4544
▁expecting	-4545
gu	-4546
abl	-4547
asc	-4548
eled	-4549
ffic	-4550
▁caf	-4551
▁saun	-4552
▁unlo	-4553
▁wise	-4554
▁ocean	-4555
▁overw	-4556
▁photo	-4557
▁hunger	-4558
▁impact	-4559
▁market	-4560
▁necrom	-4561
▁abraham	-4562
▁amazing	-4563
▁balance	-4564
▁taylors	-4565
▁hundreds	-4566
▁contained	-4567
aro	-4568
pre	-4569
geon	-4570
elebr	-4571
▁ends	-4572
▁grab	-4573
▁herb	-4574
▁lots	-4575
▁palm	-4576
▁rush	-4577
▁till	-4578
▁bones	-4579
▁crime	-4580
▁daddy	-4581
▁flood	-4582
▁idiot	-4583
▁overl	-4584
▁prove	-4585
▁tries	-4586
▁utter	-4587
ception	-4588
▁afford	-4589
▁celebr	-4590
▁deeply	-4591
▁fairly	-4592
▁interv	-4593
▁ladder	-4594
▁seated	-4595
▁source	-4596
▁theyll	-4597
▁birthday	-4598
▁instinct	-4599
▁necromanc	-4600
▁circumstances	-4601
▁lz	-4602
oted	-4603
▁wes	-4604
ashes	-4605
▁bone	-4606
▁tray	-4607
illing	-4608
unched	-4609
▁chick	-4610
▁flame	-4611
▁gives	-4612
▁porch	-4613
▁shake	-4614
▁stock	-4615
▁winds	-4616
▁adeles	-4617
▁africa	-4618
▁beauty	-4619
▁bitter	-4620
▁losing	-4621
▁causing	-4622
▁chrissy	-4623
▁fashion	-4624
▁russian	-4625
▁sauniere	-4626
mp	-4627
umn	-4628
▁16	-4629
▁elb	-4630
▁inh	-4631
▁nap	-4632
▁aint	-4633
▁fled	-4634
▁myth	-4635
▁piss	-4636
▁swam	-4637
▁encou	-4638
▁inner	-4639
▁jesus	-4640
▁excuse	-4641
▁heaven	-4642
▁tempor	-4643
▁drawing	-4644
▁painted	-4645
▁quarter	-4646
▁concluded	-4647
▁everybody	-4648
▁revealing	-4649
▁increasing	-4650
▁instructions	-4651
asty	-4652
ball	-4653
▁hab	-4654
▁asse	-4655
▁bell	-4656
▁gain	-4657
▁inch	-4658
▁leap	-4659
▁chose	-4660
▁deput	-4661
▁style	-4662
▁tough	-4663
▁france	-4664
▁gasped	-4665
▁regret	-4666
▁signal	-4667
▁switch	-4668
▁colored	-4669
▁prepare	-4670
▁secrets	-4671
▁staying	-4672
▁attacked	-4673
▁dropping	-4674
▁descended	-4675
▁entertain	-4676
jas	-4677
▁beb	-4678
▁mob	-4679
▁ult	-4680
eding	-4681
words	-4682
▁plat	-4683
▁sink	-4684
▁vast	-4685
▁cared	-4686
▁jacob	-4687
▁pride	-4688
▁sheep	-4689
idering	-4690
▁footst	-4691
▁origin	-4692
▁powder	-4693
▁glowing	-4694
▁guessed	-4695
▁society	-4696
▁spotted	-4697
▁wounded	-4698
▁captured	-4699
▁horrible	-4700
▁learning	-4701
▁supplies	-4702
▁confident	-4703
▁developed	-4704
▁questioned	-4705
▁immortality	-4706
▁responsible	-4707
▁uncomfortable	-4708
log	-4709
top	-4710
boat	-4711
gest	-4712
gger	-4713
▁ded	-4714
▁pey	-4715
▁cred	-4716
▁dumb	-4717
▁magn	-4718
▁shel	-4719
▁elena	-4720
▁trade	-4721
▁andrew	-4722
▁darnay	-4723
▁farmer	-4724
▁loudly	-4725
▁teener	-4726
▁intense	-4727
▁plastic	-4728
▁shifted	-4729
▁contract	-4730
▁replaced	-4731
▁startled	-4732
▁collapsed	-4733
ilst	-4734
izes	-4735
pert	-4736
uous	-4737
▁cro	-4738
unate	-4739
▁bags	-4740
▁drug	-4741
kinson	-4742
▁awake	-4743
▁bench	-4744
▁guide	-4745
▁invis	-4746
▁lungs	-4747
▁rapha	-4748
▁react	-4749
▁rules	-4750
▁bebida	-4751
▁contro	-4752
▁folded	-4753
▁manage	-4754
▁digging	-4755
▁overwhel	-4756
▁advantage	-4757
▁operation	-4758
▁underground	-4759
aac	-4760
ias	-4761
itz	-4762
▁om	-4763
▁ash	-4764
▁ped	-4765
▁vir	-4766
oured	-4767
▁hint	-4768
▁muff	-4769
▁neat	-4770
▁papa	-4771
▁role	-4772
▁abbey	-4773
▁brave	-4774
▁isaac	-4775
▁jeans	-4776
▁knock	-4777
▁match	-4778
▁owner	-4779
▁teach	-4780
▁choose	-4781
▁photos	-4782
▁points	-4783
▁central	-4784
▁picking	-4785
▁official	-4786
▁excellent	-4787
▁footsteps	-4788
▁indicated	-4789
▁appearance	-4790
▁population	-4791
▁12	-4792
▁15	-4793
fire	-4794
iter	-4795
nday	-4796
reek	-4797
▁fac	-4798
▁jam	-4799
▁urs	-4800
▁beer	-4801
▁fasc	-4802
▁hawk	-4803
▁hers	-4804
▁toby	-4805
▁unit	-4806
▁vers	-4807
▁cheer	-4808
▁cloth	-4809
▁dried	-4810
▁gabes	-4811
▁valre	-4812
▁weird	-4813
mission	-4814
▁apolog	-4815
▁dining	-4816
▁explan	-4817
▁frozen	-4818
▁palmer	-4819
atically	-4820
▁develop	-4821
▁highway	-4822
▁muscles	-4823
▁directed	-4824
▁considering	-4825
lim	-4826
▁ep	-4827
host	-4828
logy	-4829
▁hir	-4830
▁jaz	-4831
olved	-4832
▁cere	-4833
▁pine	-4834
▁facts	-4835
▁ghost	-4836
▁lodge	-4837
▁medic	-4838
▁novel	-4839
▁peter	-4840
▁roads	-4841
▁calmly	-4842
▁compet	-4843
▁female	-4844
▁fourth	-4845
▁liquid	-4846
▁nights	-4847
▁uncons	-4848
▁whilst	-4849
▁briefly	-4850
▁explore	-4851
▁gripped	-4852
▁matters	-4853
▁visited	-4854
▁eyebrows	-4855
▁staircase	-4856
▁restaurant	-4857
▁responsibility	-4858
ok	-4859
iona	-4860
omic	-4861
pher	-4862
wood	-4863
▁cig	-4864
▁eur	-4865
▁tip	-4866
agged	-4867
irled	-4868
▁crim	-4869
▁exer	-4870
▁exit	-4871
▁furn	-4872
▁glim	-4873
▁torn	-4874
▁based	-4875
▁bored	-4876
▁clock	-4877
▁frequ	-4878
▁swift	-4879
▁contem	-4880
▁deputy	-4881
▁sought	-4882
▁swords	-4883
▁volunt	-4884
ashwords	-4885
▁claimed	-4886
▁release	-4887
▁unusual	-4888
▁caroline	-4889
▁structure	-4890
▁therefore	-4891
burn	-4892
ford	-4893
▁lip	-4894
▁unw	-4895
ulate	-4896
▁embr	-4897
▁impl	-4898
icient	-4899
▁drunk	-4900
▁hired	-4901
▁issue	-4902
▁minds	-4903
▁naked	-4904
▁spare	-4905
▁stiff	-4906
ivering	-4907
▁austin	-4908
▁crying	-4909
▁harbor	-4910
▁jerked	-4911
▁changes	-4912
▁content	-4913
▁express	-4914
▁flowing	-4915
▁singing	-4916
▁pleasant	-4917
▁impressed	-4918
▁background	-4919
▁particularly	-4920
dle	-4921
rog	-4922
ases	-4923
rant	-4924
▁laz	-4925
▁opt	-4926
▁pee	-4927
▁dare	-4928
▁guil	-4929
▁jail	-4930
▁viet	-4931
▁airpl	-4932
▁cisco	-4933
▁kyule	-4934
▁neare	-4935
▁reass	-4936
▁taste	-4937
fection	-4938
▁former	-4939
▁halsey	-4940
▁london	-4941
▁lonnie	-4942
▁packed	-4943
▁palace	-4944
▁resour	-4945
▁stones	-4946
▁warned	-4947
▁capable	-4948
▁foolish	-4949
▁hunters	-4950
▁shelter	-4951
▁raphaell	-4952
den	-4953
ese	-4954
cast	-4955
form	-4956
ners	-4957
▁tah	-4958
▁brow	-4959
▁chan	-4960
▁eggs	-4961
▁gods	-4962
▁contr	-4963
▁lzaro	-4964
▁minot	-4965
▁pause	-4966
▁branch	-4967
▁carved	-4968
▁martir	-4969
▁exposed	-4970
▁patient	-4971
▁rapidly	-4972
▁atkinson	-4973
▁muttered	-4974
▁swallowed	-4975
bly	-4976
mar	-4977
aken	-4978
aved	-4979
inder	-4980
▁dies	-4981
▁murd	-4982
▁murm	-4983
▁olew	-4984
▁snip	-4985
▁sque	-4986
mbling	-4987
▁kojas	-4988
▁stead	-4989
▁employ	-4990
▁famous	-4991
▁favour	-4992
▁ripped	-4993
▁rupert	-4994
▁tossed	-4995
▁transl	-4996
▁ursula	-4997
▁relaxed	-4998
▁shortly	-4999
▁relieved	-5000
▁squeezed	-5001
▁kaplansky	-5002
▁statement	-5003
▁directions	-5004
▁instructed	-5005
▁protection	-5006
od	-5007
ama	-5008
▁ta	-5009
▁awa	-5010
▁ing	-5011
iance	-5012
▁aver	-5013
▁race	-5014
▁wire	-5015
▁fools	-5016
▁keeps	-5017
▁mirac	-5018
▁noted	-5019
▁ricky	-5020
▁forgot	-5021
▁tucked	-5022
▁invited	-5023
▁lightly	-5024
▁student	-5025
▁tarrens	-5026
▁entering	-5027
▁features	-5028
▁incident	-5029
▁property	-5030
▁solution	-5031
▁alongside	-5032
▁backwards	-5033
▁gathering	-5034
▁invisible	-5035
▁reflected	-5036
▁experiment	-5037
▁friendship	-5038
▁laboratory	-5039
ga	-5040
ato	-5041
omy	-5042
▁30	-5043
▁ms	-5044
abor	-5045
burg	-5046
rain	-5047
rily	-5048
▁bru	-5049
▁bud	-5050
▁kil	-5051
▁voy	-5052
ended	-5053
neath	-5054
oulib	-5055
place	-5056
▁elev	-5057
▁fest	-5058
▁hull	-5059
▁rage	-5060
▁tang	-5061
▁alarm	-5062
▁areas	-5063
▁brill	-5064
▁route	-5065
▁surve	-5066
▁abrupt	-5067
▁jazell	-5068
▁pirate	-5069
▁roulib	-5070
▁rubbed	-5071
▁scramb	-5072
▁speech	-5073
▁deliber	-5074
▁frowned	-5075
▁jackson	-5076
▁lighter	-5077
▁require	-5078
▁spanish	-5079
▁trapped	-5080
▁stopping	-5081
▁abandoned	-5082
▁increased	-5083
▁appreciate	-5084
▁scientists	-5085
▁underneath	-5086
▁destination	-5087
▁experienced	-5088
ya	-5089
roll	-5090
sequ	-5091
ught	-5092
▁awk	-5093
ingly	-5094
ology	-5095
▁aunt	-5096
▁enth	-5097
▁maya	-5098
▁scen	-5099
▁spun	-5100
▁tear	-5101
coming	-5102
ouring	-5103
▁belly	-5104
▁boliv	-5105
▁crash	-5106
▁fence	-5107
▁marry	-5108
▁raced	-5109
▁wolfe	-5110
▁assass	-5111
▁assume	-5112
▁depths	-5113
▁disbel	-5114
▁mexico	-5115
▁shared	-5116
▁strode	-5117
▁awkward	-5118
▁blinked	-5119
▁cutting	-5120
▁drifted	-5121
▁opinion	-5122
▁contempl	-5123
▁floating	-5124
▁overhead	-5125
▁pounding	-5126
▁separate	-5127
▁survived	-5128
▁intention	-5129
▁passenger	-5130
▁realizing	-5131
▁impression	-5132
▁incredible	-5133
▁introduced	-5134
▁necromancer	-5135
cle	-5136
ino	-5137
isc	-5138
raw	-5139
fall	-5140
iety	-5141
▁nin	-5142
▁bunk	-5143
▁data	-5144
▁file	-5145
iments	-5146
seless	-5147
stream	-5148
▁calls	-5149
▁consp	-5150
▁gazed	-5151
▁pulls	-5152
▁smark	-5153
▁tents	-5154
▁acting	-5155
▁coyote	-5156
▁guilty	-5157
▁shaped	-5158
▁breathe	-5159
▁closing	-5160
▁enemies	-5161
▁sixteen	-5162
▁traffic	-5163
▁seemingly	-5164
▁department	-5165
pet	-5166
arse	-5167
hens	-5168
▁wow	-5169
essed	-5170
▁dull	-5171
▁jiff	-5172
▁phil	-5173
▁tend	-5174
▁walt	-5175
▁craft	-5176
▁cream	-5177
▁crept	-5178
▁faith	-5179
▁subst	-5180
▁surre	-5181
▁upset	-5182
▁curled	-5183
▁images	-5184
▁stands	-5185
▁farther	-5186
▁greeted	-5187
▁located	-5188
▁volunte	-5189
▁warrior	-5190
▁activity	-5191
▁creating	-5192
▁exploded	-5193
▁transfer	-5194
▁agreement	-5195
▁traveling	-5196
▁passengers	-5197
fit	-5198
▁ss	-5199
▁ank	-5200
▁bau	-5201
▁kal	-5202
itage	-5203
▁anch	-5204
▁appl	-5205
▁clen	-5206
▁cous	-5207
▁fist	-5208
▁hood	-5209
▁publ	-5210
▁stab	-5211
▁stor	-5212
idding	-5213
▁accur	-5214
▁achie	-5215
▁exerc	-5216
▁flick	-5217
▁franc	-5218
▁hiram	-5219
▁hocks	-5220
▁prosp	-5221
▁shelf	-5222
▁silly	-5223
▁border	-5224
▁histor	-5225
▁louder	-5226
▁flipped	-5227
▁milburn	-5228
▁nazaret	-5229
▁parking	-5230
▁deserted	-5231
▁distinct	-5232
▁function	-5233
▁touching	-5234
▁upstairs	-5235
▁desperate	-5236
▁university	-5237
ex	-5238
bar	-5239
icy	-5240
mod	-5241
ock	-5242
rud	-5243
▁bor	-5244
kered	-5245
▁carl	-5246
▁grav	-5247
▁argue	-5248
▁distr	-5249
▁grunt	-5250
▁items	-5251
▁linda	-5252
▁topsy	-5253
▁veget	-5254
▁calcul	-5255
▁goodby	-5256
▁leland	-5257
▁airport	-5258
▁disgust	-5259
▁granite	-5260
▁greater	-5261
▁percent	-5262
▁retired	-5263
▁arranged	-5264
▁declared	-5265
▁roulibard	-5266
ius	-5267
ura	-5268
▁ug	-5269
▁cyl	-5270
▁exh	-5271
▁hid	-5272
▁mic	-5273
bbled	-5274
▁crap	-5275
▁rate	-5276
▁badly	-5277
▁homes	-5278
▁imper	-5279
▁weeke	-5280
▁withd	-5281
▁dagger	-5282
▁popped	-5283
▁signed	-5284
▁tender	-5285
▁vessel	-5286
▁brushed	-5287
▁precise	-5288
▁results	-5289
▁confront	-5290
▁purchase	-5291
▁suitable	-5292
▁completed	-5293
▁unconscious	-5294
ita	-5295
off	-5296
wed	-5297
alog	-5298
iser	-5299
uits	-5300
▁aid	-5301
▁gut	-5302
▁yan	-5303
sters	-5304
▁cult	-5305
▁dise	-5306
▁rent	-5307
▁sake	-5308
▁smir	-5309
▁behav	-5310
▁drops	-5311
▁drugs	-5312
▁enorm	-5313
▁fluid	-5314
▁monks	-5315
▁swear	-5316
▁wrist	-5317
▁colors	-5318
▁courty	-5319
▁patrol	-5320
▁pilots	-5321
▁season	-5322
▁shoved	-5323
▁throne	-5324
▁valrek	-5325
▁wheels	-5326
▁diamond	-5327
▁emotion	-5328
▁product	-5329
▁reflect	-5330
▁screams	-5331
▁trigger	-5332
▁arriving	-5333
▁constant	-5334
▁minotaur	-5335
▁prisoner	-5336
▁southern	-5337
▁professor	-5338
▁strangely	-5339
▁transport	-5340
▁intelligence	-5341
000	-5342
cel	-5343
hen	-5344
hol	-5345
aurs	-5346
▁abo	-5347
▁lux	-5348
inate	-5349
▁inev	-5350
▁joke	-5351
▁lies	-5352
▁pond	-5353
vering	-5354
▁dicky	-5355
▁druce	-5356
▁finds	-5357
▁influ	-5358
▁irrit	-5359
▁shiny	-5360
▁betray	-5361
▁daniel	-5362
▁fabric	-5363
▁review	-5364
▁wilbur	-5365
▁caution	-5366
▁dismiss	-5367
▁railing	-5368
▁sliding	-5369
▁captives	-5370
▁sideways	-5371
▁suspected	-5372
▁companions	-5373
▁flashlight	-5374
▁possibility	-5375
ez	-5376
gn	-5377
lam	-5378
str	-5379
xen	-5380
▁gw	-5381
ales	-5382
eson	-5383
lers	-5384
▁asp	-5385
▁bog	-5386
▁cit	-5387
▁ski	-5388
gency	-5389
pless	-5390
▁cash	-5391
▁crou	-5392
▁brand	-5393
▁camer	-5394
▁daily	-5395
▁entry	-5396
▁frodo	-5397
▁roman	-5398
▁serve	-5399
▁stops	-5400
▁backed	-5401
▁bleson	-5402
▁conver	-5403
▁dragon	-5404
▁hugged	-5405
▁langue	-5406
▁perman	-5407
▁remove	-5408
▁strike	-5409
▁england	-5410
▁halfway	-5411
▁jacques	-5412
▁morocco	-5413
▁passion	-5414
▁quality	-5415
▁stretch	-5416
▁thunder	-5417
▁chambers	-5418
▁neighbor	-5419
▁raphaella	-5420
▁photograph	-5421
vy	-5422
now	-5423
oli	-5424
uls	-5425
hold	-5426
rier	-5427
▁nur	-5428
▁code	-5429
▁dang	-5430
▁dece	-5431
▁dism	-5432
▁emph	-5433
▁fant	-5434
▁itll	-5435
▁male	-5436
▁virt	-5437
▁awoke	-5438
▁devil	-5439
▁mason	-5440
▁nasty	-5441
▁revol	-5442
▁tripw	-5443
▁altern	-5444
▁angels	-5445
▁damned	-5446
▁falcon	-5447
▁german	-5448
▁peyton	-5449
▁tables	-5450
▁temple	-5451
▁cracked	-5452
▁eastern	-5453
▁flowers	-5454
▁lifting	-5455
▁studies	-5456
▁blesonus	-5457
▁stronger	-5458
▁visitors	-5459
▁interview	-5460
▁cautiously	-5461
▁individual	-5462
▁smashwords	-5463
▁reluctantly	-5464
yl	-5465
gin	-5466
ila	-5467
▁dun	-5468
▁hut	-5469
▁inn	-5470
eling	-5471
venge	-5472
▁anti	-5473
▁brit	-5474
▁cops	-5475
▁drum	-5476
▁mudd	-5477
▁obel	-5478
▁stol	-5479
▁zale	-5480
▁burge	-5481
▁metho	-5482
▁persp	-5483
▁trial	-5484
ressive	-5485
▁attend	-5486
▁barrel	-5487
▁driven	-5488
▁enthus	-5489
▁rested	-5490
▁slaves	-5491
▁waving	-5492
▁engines	-5493
▁harbour	-5494
▁airplane	-5495
▁grabbing	-5496
▁occupied	-5497
▁specific	-5498
▁swimming	-5499
▁vehicles	-5500
▁explosion	-5501
▁explanation	-5502
iple	-5503
mist	-5504
rous	-5505
▁191	-5506
▁ara	-5507
▁dow	-5508
▁keys	-5509
▁sank	-5510
▁drank	-5511
▁prior	-5512
▁recon	-5513
▁satur	-5514
▁saxen	-5515
▁steve	-5516
▁wiped	-5517
▁closet	-5518
▁combat	-5519
▁envelo	-5520
▁latest	-5521
▁disturb	-5522
▁exhaust	-5523
▁fucking	-5524
▁argument	-5525
▁northern	-5526
▁courtyard	-5527
▁preparing	-5528
▁scientist	-5529
▁complicated	-5530
bal	-5531
izz	-5532
▁13	-5533
▁17	-5534
back	-5535
ikes	-5536
uced	-5537
▁dex	-5538
▁ton	-5539
alous	-5540
phone	-5541
raged	-5542
uable	-5543
▁bast	-5544
▁buzz	-5545
▁clas	-5546
▁econ	-5547
▁goal	-5548
▁lone	-5549
▁nurs	-5550
▁perm	-5551
▁sust	-5552
▁yach	-5553
atives	-5554
▁alert	-5555
▁ariis	-5556
▁bould	-5557
▁coinc	-5558
▁dance	-5559
▁grate	-5560
▁guilt	-5561
▁heels	-5562
▁outer	-5563
▁queen	-5564
▁sheet	-5565
▁xiona	-5566
▁expert	-5567
▁option	-5568
▁ruined	-5569
▁angrily	-5570
▁anybody	-5571
▁contain	-5572
▁doctors	-5573
▁prevent	-5574
▁roughly	-5575
▁jennings	-5576
▁mistress	-5577
▁signific	-5578
▁stranger	-5579
▁struggle	-5580
▁strangers	-5581
iks	-5582
pit	-5583
rif	-5584
sec	-5585
athy	-5586
time	-5587
▁couch	-5588
▁etern	-5589
▁hasnt	-5590
▁illeg	-5591
▁illum	-5592
▁james	-5593
▁jenny	-5594
▁rocky	-5595
▁terms	-5596
▁villa	-5597
▁affect	-5598
▁arrest	-5599
▁boring	-5600
▁castle	-5601
▁paying	-5602
▁recent	-5603
▁assault	-5604
▁engaged	-5605
▁enthusi	-5606
▁shining	-5607
▁western	-5608
▁breathed	-5609
▁catching	-5610
▁governor	-5611
▁immortal	-5612
▁intently	-5613
▁tripwire	-5614
▁movements	-5615
▁uncertain	-5616
▁reenactors	-5617
▁scientific	-5618
▁investigation	-5619
gar	-5620
▁ak	-5621
▁gy	-5622
hest	-5623
ulty	-5624
▁lin	-5625
▁typ	-5626
gered	-5627
▁dads	-5628
▁dial	-5629
▁haul	-5630
▁nail	-5631
▁symp	-5632
▁ugly	-5633
▁artic	-5634
▁envir	-5635
▁false	-5636
▁miron	-5637
▁squad	-5638
▁stall	-5639
▁vague	-5640
▁career	-5641
▁clever	-5642
▁conven	-5643
▁ending	-5644
▁highly	-5645
▁junior	-5646
▁laptop	-5647
▁movies	-5648
▁olewan	-5649
▁pissed	-5650
▁senses	-5651
▁sophia	-5652
▁teased	-5653
▁theory	-5654
▁worlds	-5655
▁chicken	-5656
▁forgive	-5657
▁knights	-5658
▁mounted	-5659
▁raiders	-5660
▁receive	-5661
▁replace	-5662
▁stunned	-5663
▁advanced	-5664
▁traveled	-5665
▁wandered	-5666
▁decisions	-5667
▁expensive	-5668
▁literally	-5669
▁religious	-5670
▁girlfriend	-5671
▁accompanied	-5672
▁frustration	-5673
▁professional	-5674
oph	-5675
vas	-5676
ctic	-5677
outs	-5678
pled	-5679
▁fed	-5680
▁muj	-5681
▁nod	-5682
▁pig	-5683
▁vig	-5684
▁wre	-5685
aping	-5686
ounce	-5687
▁cris	-5688
▁ease	-5689
▁hast	-5690
▁jasm	-5691
▁ratt	-5692
▁sell	-5693
atonic	-5694
▁banks	-5695
▁folks	-5696
▁froze	-5697
▁jiffy	-5698
▁owned	-5699
▁refer	-5700
▁sandy	-5701
▁spade	-5702
▁thumb	-5703
▁vella	-5704
▁acknow	-5705
▁amused	-5706
▁anchor	-5707
▁butter	-5708
▁deadly	-5709
▁firing	-5710
▁muscle	-5711
▁poison	-5712
▁reveal	-5713
▁stable	-5714
▁stolen	-5715
▁chronic	-5716
▁consequ	-5717
▁records	-5718
▁sharply	-5719
▁smarkzy	-5720
▁sentence	-5721
▁whenever	-5722
▁community	-5723
▁described	-5724
▁resources	-5725
▁conditions	-5726
hh	-5727
ana	-5728
ini	-5729
tle	-5730
cape	-5731
▁kae	-5732
ament	-5733
▁coin	-5734
▁crit	-5735
▁lamp	-5736
▁seek	-5737
ession	-5738
▁allah	-5739
▁andre	-5740
▁cases	-5741
▁chill	-5742
▁citiz	-5743
▁limbs	-5744
▁moves	-5745
▁palms	-5746
▁shows	-5747
▁blocks	-5748
▁electr	-5749
▁finder	-5750
▁flowed	-5751
▁rights	-5752
▁social	-5753
▁vicent	-5754
▁anxious	-5755
▁existed	-5756
▁filling	-5757
▁holiday	-5758
▁injured	-5759
▁overloo	-5760
▁scanned	-5761
▁spectac	-5762
▁violent	-5763
▁airfield	-5764
▁bleeding	-5765
▁convince	-5766
▁national	-5767
▁reaction	-5768
▁delivered	-5769
▁newspaper	-5770
▁trembling	-5771
▁conclusion	-5772
▁technology	-5773
ca	-5774
apes	-5775
esty	-5776
etch	-5777
otic	-5778
vert	-5779
walk	-5780
▁las	-5781
▁nex	-5782
▁pis	-5783
▁rib	-5784
stand	-5785
▁anns	-5786
▁aval	-5787
▁damp	-5788
▁earn	-5789
▁exec	-5790
▁kick	-5791
▁lied	-5792
▁qual	-5793
asures	-5794
▁bitch	-5795
▁indic	-5796
▁mutan	-5797
▁paris	-5798
▁ridge	-5799
▁sport	-5800
▁zaleb	-5801
inating	-5802
▁launch	-5803
▁sensed	-5804
▁useful	-5805
▁voyage	-5806
▁beating	-5807
▁bullets	-5808
▁catalog	-5809
▁channel	-5810
▁doubted	-5811
▁gesture	-5812
▁goodbye	-5813
▁marines	-5814
▁pattern	-5815
▁species	-5816
▁treated	-5817
▁crystals	-5818
▁cylinder	-5819
▁examined	-5820
▁interior	-5821
▁stumbled	-5822
▁desperately	-5823
aunt	-5824
▁cav	-5825
▁ere	-5826
▁pak	-5827
▁unh	-5828
▁bits	-5829
▁genu	-5830
▁hook	-5831
▁padd	-5832
▁sole	-5833
ensity	-5834
inging	-5835
onment	-5836
▁agent	-5837
▁awful	-5838
▁coach	-5839
▁kings	-5840
▁nixes	-5841
▁pages	-5842
▁stark	-5843
intment	-5844
▁corpor	-5845
▁cursed	-5846
▁echoed	-5847
▁escort	-5848
▁financ	-5849
▁ignore	-5850
▁pillow	-5851
▁recall	-5852
▁stores	-5853
▁wounds	-5854
▁crawled	-5855
▁curtain	-5856
▁dealing	-5857
▁defense	-5858
▁element	-5859
▁pirates	-5860
▁revenge	-5861
▁basement	-5862
▁kingdoms	-5863
▁vanished	-5864
▁attempted	-5865
▁collected	-5866
▁confidence	-5867
▁occasional	-5868
▁suspicious	-5869
▁traditional	-5870
▁occasionally	-5871
▁organization	-5872
apse	-5873
▁ard	-5874
▁ris	-5875
▁shr	-5876
▁ven	-5877
eness	-5878
water	-5879
atched	-5880
urance	-5881
▁creek	-5882
▁demon	-5883
▁fifth	-5884
▁holds	-5885
▁kinds	-5886
▁parad	-5887
▁skirt	-5888
▁sniff	-5889
▁trace	-5890
▁willi	-5891
▁actual	-5892
▁breast	-5893
▁dexter	-5894
▁garage	-5895
▁mighty	-5896
▁retrie	-5897
▁advance	-5898
▁chances	-5899
▁handful	-5900
▁raising	-5901
▁weekend	-5902
▁enormous	-5903
▁millions	-5904
▁childhood	-5905
▁continues	-5906
▁political	-5907
▁represent	-5908
▁collection	-5909
▁environment	-5910
▁remembering	-5911
enth	-5912
hole	-5913
unks	-5914
brush	-5915
osing	-5916
otted	-5917
▁bang	-5918
▁bite	-5919
▁brut	-5920
▁fake	-5921
▁link	-5922
▁misk	-5923
▁sway	-5924
▁text	-5925
▁bowed	-5926
▁corps	-5927
▁eaten	-5928
▁holes	-5929
▁movie	-5930
▁ropes	-5931
▁sneak	-5932
▁walks	-5933
ishment	-5934
▁brings	-5935
▁eleven	-5936
▁europe	-5937
▁jewish	-5938
▁laying	-5939
▁prompt	-5940
▁smiles	-5941
▁thrust	-5942
▁appears	-5943
▁cooking	-5944
▁package	-5945
▁seventy	-5946
▁bothered	-5947
▁murdered	-5948
▁quarring	-5949
▁spending	-5950
▁sticking	-5951
▁switched	-5952
▁companion	-5953
▁suffering	-5954
mys	-5955
nys	-5956
pri	-5957
zan	-5958
▁ax	-5959
ston	-5960
▁bye	-5961
▁pla	-5962
▁que	-5963
▁sof	-5964
▁won	-5965
aware	-5966
erted	-5967
olded	-5968
ulted	-5969
▁bron	-5970
▁huff	-5971
▁pant	-5972
▁prin	-5973
▁scru	-5974
▁snap	-5975
▁sons	-5976
▁tore	-5977
▁wash	-5978
▁dusty	-5979
▁eased	-5980
▁fever	-5981
▁frost	-5982
▁louis	-5983
▁shame	-5984
▁arrows	-5985
▁defend	-5986
▁degree	-5987
▁device	-5988
▁marked	-5989
▁nightm	-5990
▁skinny	-5991
▁tapped	-5992
▁victor	-5993
▁wasted	-5994
▁wishes	-5995
▁genuine	-5996
▁muffled	-5997
▁obelisk	-5998
▁partner	-5999
▁stuffed	-6000
▁useless	-6001
▁version	-6002
▁vietnam	-6003
▁abruptly	-6004
▁director	-6005
▁particip	-6006
▁discovery	-6007
▁saxenburg	-6008
▁additional	-6009
▁relatively	-6010
▁struggling	-6011
▁questioning	-6012
▁disappointed	-6013
hma	-6014
los	-6015
oma	-6016
ops	-6017
▁lt	-6018
dgew	-6019
mosp	-6020
▁lan	-6021
▁lur	-6022
▁pac	-6023
▁shy	-6024
▁unn	-6025
chers	-6026
▁holy	-6027
▁lege	-6028
▁manh	-6029
▁mini	-6030
▁radi	-6031
▁salt	-6032
ffered	-6033
▁belen	-6034
▁cards	-6035
▁drown	-6036
▁grasp	-6037
▁habit	-6038
▁hopes	-6039
▁nurse	-6040
▁princ	-6041
▁ridic	-6042
▁santa	-6043
▁tract	-6044
▁atmosp	-6045
▁prayer	-6046
▁purple	-6047
▁puzzle	-6048
▁racing	-6049
▁random	-6050
▁sniper	-6051
▁average	-6052
▁baudgew	-6053
▁cameras	-6054
▁closest	-6055
▁constru	-6056
▁figures	-6057
▁tension	-6058
▁vicente	-6059
▁washing	-6060
▁collapse	-6061
▁eighteen	-6062
▁knocking	-6063
▁uniforms	-6064
▁disbelief	-6065
▁adventures	-6066
▁hesitation	-6067
▁permission	-6068
reg	-6069
uffs	-6070
▁fan	-6071
▁boot	-6072
▁obsc	-6073
▁owen	-6074
▁runs	-6075
▁tape	-6076
▁tomb	-6077
▁edges	-6078
▁knelt	-6079
▁mayor	-6080
▁nexus	-6081
▁scent	-6082
▁seats	-6083
▁wagon	-6084
▁diesel	-6085
▁leaped	-6086
▁mujade	-6087
▁prepar	-6088
▁blocked	-6089
▁disease	-6090
▁freight	-6091
▁groaned	-6092
▁healthy	-6093
▁jumping	-6094
▁routine	-6095
▁trailer	-6096
▁wingers	-6097
▁yelling	-6098
▁appropri	-6099
▁crossing	-6100
▁ignoring	-6101
▁saturday	-6102
▁valuable	-6103
▁exception	-6104
▁nervously	-6105
▁presented	-6106
▁separated	-6107
▁successful	-6108
vor	-6109
bble	-6110
ette	-6111
iner	-6112
sect	-6113
ties	-6114
umer	-6115
▁eru	-6116
▁oak	-6117
▁unb	-6118
erald	-6119
eraun	-6120
uffed	-6121
▁flee	-6122
▁laws	-6123
▁leav	-6124
▁ware	-6125
isters	-6126
tained	-6127
umping	-6128
▁admin	-6129
▁altam	-6130
▁blown	-6131
▁cable	-6132
▁cheap	-6133
▁ferry	-6134
▁fists	-6135
▁loyal	-6136
▁marks	-6137
▁skull	-6138
▁swirl	-6139
▁teams	-6140
▁wendy	-6141
ulating	-6142
▁aboard	-6143
▁bushes	-6144
▁cannon	-6145
▁feraun	-6146
▁gained	-6147
▁pisces	-6148
▁rocket	-6149
▁transp	-6150
▁trucks	-6151
▁wisdom	-6152
▁blowing	-6153
▁british	-6154
▁charged	-6155
▁deliver	-6156
▁emerald	-6157
▁foreign	-6158
▁jealous	-6159
▁nearest	-6160
▁cornwell	-6161
▁helpless	-6162
▁mujadeen	-6163
▁reported	-6164
▁sunlight	-6165
▁brilliant	-6166
▁centuries	-6167
▁terrified	-6168
▁continuing	-6169
▁mysterious	-6170
▁description	-6171
▁destruction	-6172
▁satisfaction	-6173
ani	-6174
boy	-6175
gun	-6176
rer	-6177
▁14	-6178
▁tv	-6179
▁ze	-6180
rose	-6181
sell	-6182
stok	-6183
▁gps	-6184
▁lid	-6185
▁oct	-6186
▁pup	-6187
▁sed	-6188
▁wan	-6189
▁bomb	-6190
▁flut	-6191
▁kant	-6192
▁puts	-6193
▁spit	-6194
▁thus	-6195
idents	-6196
▁coins	-6197
▁harsh	-6198
▁instr	-6199
▁minor	-6200
▁rabbi	-6201
▁spain	-6202
ulously	-6203
▁belief	-6204
▁billys	-6205
▁casual	-6206
▁column	-6207
▁expand	-6208
▁fierce	-6209
▁intrig	-6210
▁preser	-6211
▁rivers	-6212
▁sleeve	-6213
▁sooner	-6214
▁string	-6215
▁virgin	-6216
▁warden	-6217
attering	-6218
▁bearing	-6219
▁belenus	-6220
▁confirm	-6221
▁courage	-6222
▁crashed	-6223
▁daniels	-6224
▁monitor	-6225
▁placing	-6226
▁smelled	-6227
▁trusted	-6228
▁clenched	-6229
▁elements	-6230
▁elevator	-6231
▁follower	-6232
▁pressing	-6233
▁teaching	-6234
▁assistant	-6235
▁inspector	-6236
▁president	-6237
▁protected	-6238
▁assistance	-6239
▁miskatonic	-6240
▁specialist	-6241
▁concentrate	-6242
▁experiments	-6243
▁investigate	-6244
ugg	-6245
▁11	-6246
otes	-6247
rick	-6248
▁avi	-6249
▁cub	-6250
▁psy	-6251
▁stu	-6252
arian	-6253
arked	-6254
iture	-6255
▁bars	-6256
▁razz	-6257
▁rule	-6258
▁seed	-6259
▁tube	-6260
inkled	-6261
rating	-6262
▁adult	-6263
▁borne	-6264
▁brick	-6265
▁dread	-6266
▁flung	-6267
▁lords	-6268
▁manip	-6269
▁sadly	-6270
▁sized	-6271
▁steal	-6272
▁witch	-6273
▁ardith	-6274
▁curios	-6275
▁haired	-6276
▁lyndon	-6277
▁philos	-6278
▁retire	-6279
▁undert	-6280
▁capital	-6281
▁chopper	-6282
▁effects	-6283
▁feeding	-6284
▁illegal	-6285
▁initial	-6286
▁jasmine	-6287
▁leavitt	-6288
▁painful	-6289
▁planted	-6290
▁protest	-6291
▁stained	-6292
▁accommod	-6293
▁captains	-6294
▁centaurs	-6295
▁dripping	-6296
▁glancing	-6297
▁hereford	-6298
▁offering	-6299
▁removing	-6300
▁subjects	-6301
▁troubles	-6302
▁gentleman	-6303
▁positions	-6304
▁regarding	-6305
▁downstairs	-6306
ww	-6307
met	-6308
ppy	-6309
enet	-6310
erly	-6311
uals	-6312
vere	-6313
▁aer	-6314
▁hud	-6315
▁sin	-6316
agers	-6317
orter	-6318
ulner	-6319
▁bowl	-6320
▁khan	-6321
▁milk	-6322
▁nest	-6323
▁outs	-6324
▁reck	-6325
▁sche	-6326
▁absor	-6327
▁aimed	-6328
▁backs	-6329
▁basic	-6330
▁dense	-6331
▁fancy	-6332
▁mixed	-6333
▁prope	-6334
▁raise	-6335
▁revel	-6336
▁scree	-6337
▁spots	-6338
▁cartel	-6339
▁cellar	-6340
▁darzan	-6341
▁medina	-6342
▁remote	-6343
▁sailor	-6344
▁vostok	-6345
▁winger	-6346
▁womans	-6347
▁circled	-6348
▁germain	-6349
▁gravity	-6350
▁license	-6351
▁manager	-6352
▁daylight	-6353
▁festival	-6354
▁moroccan	-6355
▁sounding	-6356
▁spinning	-6357
▁stepping	-6358
▁survival	-6359
▁wherever	-6360
▁education	-6361
▁slightest	-6362
▁wandering	-6363
▁personally	-6364
▁imagination	-6365
▁surprisingly	-6366
50	-6367
ka	-6368
aft	-6369
des	-6370
oot	-6371
▁ri	-6372
▁rhy	-6373
ensed	-6374
isher	-6375
mered	-6376
▁foul	-6377
▁halt	-6378
▁heal	-6379
▁hudd	-6380
itated	-6381
▁apple	-6382
▁balls	-6383
▁cruel	-6384
▁gates	-6385
▁innoc	-6386
▁liber	-6387
▁limit	-6388
▁magaz	-6389
▁shaft	-6390
▁shuff	-6391
▁sorts	-6392
▁tools	-6393
idently	-6394
iration	-6395
▁advice	-6396
▁bogdon	-6397
▁covers	-6398
▁dutton	-6399
▁friday	-6400
▁invent	-6401
▁loving	-6402
▁muslim	-6403
▁rarely	-6404
▁feather	-6405
▁hitting	-6406
▁leaders	-6407
▁mumbled	-6408
▁slumped	-6409
▁unaware	-6410
▁valient	-6411
▁designed	-6412
▁disaster	-6413
▁flashing	-6414
▁operator	-6415
▁paradise	-6416
▁patience	-6417
▁positive	-6418
▁properly	-6419
▁standard	-6420
▁commanded	-6421
▁curiosity	-6422
▁encounter	-6423
▁financial	-6424
▁scrambled	-6425
▁succeeded	-6426
▁atmosphere	-6427
▁embarrassed	-6428
▁thoughtfully	-6429
▁0	-6430
ada	-6431
ora	-6432
▁..	-6433
▁22	-6434
▁ox	-6435
asha	-6436
iven	-6437
yard	-6438
▁gul	-6439
▁mig	-6440
▁sou	-6441
▁aura	-6442
▁nora	-6443
▁unst	-6444
elling	-6445
iverse	-6446
▁arose	-6447
▁chase	-6448
▁fruit	-6449
▁gradu	-6450
▁loves	-6451
▁march	-6452
▁ought	-6453
▁pouff	-6454
▁accent	-6455
▁cities	-6456
▁emphas	-6457
▁fading	-6458
▁finans	-6459
▁native	-6460
▁parach	-6461
▁potato	-6462
▁proced	-6463
▁remark	-6464
▁repair	-6465
▁saving	-6466
▁shield	-6467
▁washed	-6468
▁battery	-6469
▁becomes	-6470
▁conspir	-6471
▁counted	-6472
▁destiny	-6473
▁manhatt	-6474
▁measure	-6475
▁recover	-6476
▁reports	-6477
▁shallow	-6478
▁slapped	-6479
▁grateful	-6480
▁ordinary	-6481
▁challenge	-6482
▁virtually	-6483
▁conference	-6484
▁frustrated	-6485
▁sufficient	-6486
▁anticipation	-6487
jam	-6488
oll	-6489
oop	-6490
▁ay	-6491
ware	-6492
▁200	-6493
▁cly	-6494
▁sas	-6495
▁vin	-6496
▁zer	-6497
cript	-6498
othed	-6499
▁bust	-6500
▁garb	-6501
▁gren	-6502
▁mail	-6503
▁matt	-6504
▁plot	-6505
▁quit	-6506
▁tatt	-6507
▁toes	-6508
rifice	-6509
vision	-6510
▁crawl	-6511
▁decor	-6512
▁delic	-6513
▁fears	-6514
▁haunt	-6515
▁inhab	-6516
▁oblig	-6517
▁recru	-6518
▁salaz	-6519
▁steam	-6520
▁suits	-6521
▁cavern	-6522
▁choked	-6523
▁credit	-6524
▁plants	-6525
▁powers	-6526
▁proved	-6527
▁trevor	-6528
▁wrists	-6529
▁cleaned	-6530
▁failure	-6531
▁josephs	-6532
▁justice	-6533
▁kidding	-6534
▁kissing	-6535
▁limited	-6536
▁nodding	-6537
▁shelves	-6538
▁wedding	-6539
▁dragging	-6540
▁mainland	-6541
▁midnight	-6542
▁platform	-6543
▁richards	-6544
▁slipping	-6545
▁suffered	-6546
▁thorough	-6547
▁documents	-6548
▁immediate	-6549
▁intensity	-6550
▁discussion	-6551
▁originally	-6552
▁abrahamster	-6553
▁threatening	-6554
eys	-6555
thm	-6556
ctor	-6557
▁tub	-6558
▁bore	-6559
▁bren	-6560
▁cage	-6561
▁dove	-6562
▁lane	-6563
▁mead	-6564
▁mete	-6565
▁nick	-6566
▁pity	-6567
▁proc	-6568
▁roar	-6569
▁sped	-6570
▁zarr	-6571
imeter	-6572
ounded	-6573
▁amaze	-6574
▁fritz	-6575
▁islam	-6576
▁ohara	-6577
▁pitch	-6578
▁plung	-6579
▁spraw	-6580
▁adjust	-6581
▁blonde	-6582
▁bodygu	-6583
▁compre	-6584
▁exited	-6585
▁feared	-6586
▁parade	-6587
▁rifles	-6588
▁soaked	-6589
▁tommys	-6590
▁wheres	-6591
ications	-6592
▁extract	-6593
▁floated	-6594
▁reaches	-6595
▁swiftly	-6596
▁typical	-6597
▁marriage	-6598
▁regiment	-6599
▁shouting	-6600
▁landscape	-6601
▁lightning	-6602
▁constantly	-6603
▁neighborhood	-6604
gen	-6605
pas	-6606
eryl	-6607
gery	-6608
iece	-6609
▁lav	-6610
▁rav	-6611
arant	-6612
hetic	-6613
immed	-6614
lined	-6615
mates	-6616
veled	-6617
▁appo	-6618
▁aven	-6619
▁cuts	-6620
▁marc	-6621
▁muse	-6622
▁pipe	-6623
ifully	-6624
▁angle	-6625
▁bless	-6626
▁clues	-6627
▁hatch	-6628
▁ignor	-6629
▁micro	-6630
▁scope	-6631
▁solve	-6632
utation	-6633
▁bunker	-6634
▁cirile	-6635
▁ducked	-6636
▁instit	-6637
▁intern	-6638
▁meteor	-6639
▁rubber	-6640
▁thread	-6641
▁centaur	-6642
▁drivers	-6643
▁guarant	-6644
▁related	-6645
▁behavior	-6646
▁casually	-6647
▁noticing	-6648
▁russians	-6649
▁services	-6650
▁sidewalk	-6651
▁confusion	-6652
▁generally	-6653
▁purchased	-6654
▁frightened	-6655
▁appropriate	-6656
uv	-6657
hou	-6658
laf	-6659
len	-6660
ota	-6661
yer	-6662
▁ec	-6663
mans	-6664
▁hmm	-6665
▁hug	-6666
enced	-6667
▁clar	-6668
▁cube	-6669
▁dram	-6670
▁film	-6671
▁greg	-6672
▁heck	-6673
▁jobs	-6674
▁noby	-6675
▁pall	-6676
▁rect	-6677
▁tamy	-6678
▁vinc	-6679
othing	-6680
▁anlaf	-6681
▁beryl	-6682
▁clyde	-6683
▁fleet	-6684
▁slave	-6685
▁tales	-6686
imately	-6687
▁burden	-6688
▁cracks	-6689
▁elabor	-6690
▁estate	-6691
▁fitted	-6692
▁gloves	-6693
▁hiking	-6694
▁hudson	-6695
▁insist	-6696
▁joking	-6697
▁neighb	-6698
▁pickup	-6699
▁rhythm	-6700
▁rounds	-6701
▁strict	-6702
▁annoyed	-6703
▁symbols	-6704
▁cleaning	-6705
▁compared	-6706
▁departed	-6707
▁exercise	-6708
▁grinning	-6709
▁selected	-6710
▁strapped	-6711
▁swinging	-6712
▁tourists	-6713
▁unlikely	-6714
▁visiting	-6715
▁reception	-6716
▁difficulty	-6717
▁quarrington	-6718
▁civilization	-6719
raq	-6720
▁21	-6721
▁um	-6722
▁anc	-6723
▁etc	-6724
▁pix	-6725
epend	-6726
▁deny	-6727
▁isol	-6728
▁mage	-6729
▁okey	-6730
▁sarn	-6731
▁tahn	-6732
▁wast	-6733
usions	-6734
▁bible	-6735
▁exped	-6736
▁fires	-6737
▁grade	-6738
▁leads	-6739
▁mexic	-6740
▁navig	-6741
▁occur	-6742
▁penet	-6743
▁rolls	-6744
▁scale	-6745
▁shade	-6746
▁shots	-6747
▁shove	-6748
▁stole	-6749
ickered	-6750
istered	-6751
▁agents	-6752
▁argued	-6753
▁carpet	-6754
▁cheese	-6755
▁danced	-6756
▁lonely	-6757
▁sheets	-6758
▁smells	-6759
▁absence	-6760
▁breaths	-6761
▁immense	-6762
▁proudly	-6763
▁storage	-6764
▁document	-6765
▁michaels	-6766
▁patients	-6767
▁ultimate	-6768
▁afterward	-6769
▁gentlemen	-6770
▁shattered	-6771
▁temporary	-6772
▁activities	-6773
▁reasonable	-6774
▁consciousness	-6775
aa	-6776
aker	-6777
bris	-6778
cipl	-6779
keep	-6780
mend	-6781
wear	-6782
▁201	-6783
▁afe	-6784
▁pra	-6785
▁rat	-6786
▁tap	-6787
ishly	-6788
loved	-6789
nings	-6790
▁arab	-6791
▁cran	-6792
▁curn	-6793
▁drac	-6794
▁iraq	-6795
▁ramp	-6796
▁slim	-6797
inting	-6798
▁adren	-6799
▁arrog	-6800
▁coven	-6801
▁curve	-6802
▁depos	-6803
▁disgu	-6804
▁fount	-6805
▁likes	-6806
▁patch	-6807
▁sched	-6808
▁spine	-6809
▁value	-6810
▁weary	-6811
▁whirl	-6812
▁cliffs	-6813
▁indust	-6814
▁mistri	-6815
▁mobile	-6816
▁owners	-6817
▁saddle	-6818
▁tattoo	-6819
▁vespas	-6820
▁beloved	-6821
▁capture	-6822
▁consult	-6823
▁dancing	-6824
▁gradock	-6825
▁retreat	-6826
▁stirred	-6827
▁upright	-6828
▁exchange	-6829
▁independ	-6830
▁amazement	-6831
▁possessed	-6832
▁scratched	-6833
▁complained	-6834
▁incredibly	-6835
▁invitation	-6836
▁battlefield	-6837
▁unfortunate	-6838
tt	-6839
uge	-6840
▁24	-6841
olve	-6842
quar	-6843
rees	-6844
▁awe	-6845
▁cha	-6846
▁mcm	-6847
▁rac	-6848
▁til	-6849
angle	-6850
elled	-6851
▁buff	-6852
▁cher	-6853
▁forb	-6854
▁lazy	-6855
▁loos	-6856
▁scow	-6857
▁shim	-6858
▁toms	-6859
ablish	-6860
ifying	-6861
▁acted	-6862
▁alley	-6863
▁growl	-6864
▁motel	-6865
▁sandw	-6866
▁straw	-6867
▁tense	-6868
▁thirt	-6869
▁tuffy	-6870
▁crowds	-6871
▁decent	-6872
▁detect	-6873
▁empire	-6874
▁interp	-6875
▁lesson	-6876
▁metall	-6877
▁morgan	-6878
▁neatly	-6879
▁applied	-6880
▁arguing	-6881
▁bottles	-6882
▁cockpit	-6883
▁corpses	-6884
▁deserve	-6885
▁endless	-6886
▁handing	-6887
▁spirits	-6888
▁visitor	-6889
▁whipped	-6890
ulnerable	-6891
▁assassin	-6892
▁attempts	-6893
▁crashing	-6894
▁district	-6895
▁piercing	-6896
▁shivered	-6897
▁performed	-6898
▁requested	-6899
▁shivering	-6900
▁controlled	-6901
▁inevitable	-6902
▁threatened	-6903
▁travelling	-6904
▁perspective	-6905
▁surroundings	-6906
gue	-6907
you	-6908
char	-6909
etic	-6910
llay	-6911
pass	-6912
▁ala	-6913
▁ken	-6914
▁lam	-6915
▁ren	-6916
▁ric	-6917
icted	-6918
inent	-6919
ooped	-6920
▁brie	-6921
▁mask	-6922
▁mate	-6923
▁melo	-6924
▁nuts	-6925
▁paan	-6926
▁sack	-6927
▁seor	-6928
▁sits	-6929
▁ward	-6930
ending	-6931
icians	-6932
imated	-6933
urally	-6934
▁cloak	-6935
▁kalam	-6936
▁lifet	-6937
▁tanks	-6938
▁ancest	-6939
▁aspect	-6940
▁davids	-6941
▁marcus	-6942
▁online	-6943
▁roared	-6944
▁shapes	-6945
▁uneasy	-6946
▁upward	-6947
▁adrenal	-6948
▁afellay	-6949
▁cigaret	-6950
▁marched	-6951
▁rounded	-6952
▁torture	-6953
▁victims	-6954
▁controls	-6955
▁covenant	-6956
▁delicate	-6957
▁handsome	-6958
▁produced	-6959
▁characters	-6960
▁importance	-6961
▁profession	-6962
▁underbrush	-6963
▁revivification	-6964
loc	-6965
oti	-6966
ris	-6967
atch	-6968
mony	-6969
▁biz	-6970
▁dil	-6971
▁enh	-6972
▁mos	-6973
▁tag	-6974
▁tid	-6975
asses	-6976
itect	-6977
▁alco	-6978
▁bask	-6979
▁beam	-6980
▁boom	-6981
▁deer	-6982
▁fond	-6983
▁glen	-6984
▁lean	-6985
▁moss	-6986
▁rene	-6987
▁yawn	-6988
▁yell	-6989
rences	-6990
▁amuse	-6991
▁antar	-6992
▁drain	-6993
▁flown	-6994
▁newly	-6995
▁panel	-6996
▁quant	-6997
▁shrie	-6998
▁stack	-6999
▁sweep	-7000
▁title	-7001
▁veins	-7002
▁assure	-7003
▁blades	-7004
▁canvas	-7005
▁cement	-7006
▁darted	-7007
▁gazing	-7008
▁marine	-7009
▁negoti	-7010
▁sealed	-7011
▁submar	-7012
▁sunday	-7013
▁troops	-7014
▁warner	-7015
▁biggest	-7016
▁crowded	-7017
▁decades	-7018
▁decides	-7019
▁fitting	-7020
▁gregore	-7021
▁israeli	-7022
▁popular	-7023
▁sailors	-7024
▁targets	-7025
▁citizens	-7026
▁darkened	-7027
▁included	-7028
▁metallic	-7029
▁peaceful	-7030
▁abilities	-7031
▁architect	-7032
▁establish	-7033
▁exploring	-7034
▁influence	-7035
▁mechanism	-7036
▁sensation	-7037
▁travelled	-7038
▁vibration	-7039
▁distracted	-7040
▁generation	-7041
▁resistance	-7042
▁ridiculous	-7043
bes	-7044
hem	-7045
see	-7046
bury	-7047
ilio	-7048
orks	-7049
oufl	-7050
uary	-7051
umph	-7052
▁boh	-7053
▁plo	-7054
istan	-7055
▁alar	-7056
▁bend	-7057
▁logs	-7058
▁maur	-7059
▁moms	-7060
▁rank	-7061
▁sore	-7062
▁ssus	-7063
▁subs	-7064
▁ting	-7065
▁urge	-7066
▁whim	-7067
erable	-7068
mering	-7069
▁analy	-7070
▁camps	-7071
▁cents	-7072
▁cough	-7073
▁forms	-7074
▁opens	-7075
▁phill	-7076
▁rands	-7077
▁shone	-7078
▁socks	-7079
▁squir	-7080
▁adaman	-7081
▁assign	-7082
▁defeat	-7083
▁elders	-7084
▁emilio	-7085
▁engage	-7086
▁honour	-7087
▁levels	-7088
▁rumors	-7089
▁achieve	-7090
▁alcohol	-7091
▁camoufl	-7092
▁crushed	-7093
▁equally	-7094
▁happily	-7095
▁peering	-7096
▁pouring	-7097
▁schools	-7098
▁addition	-7099
▁launched	-7100
▁medicine	-7101
▁troubled	-7102
▁universe	-7103
▁violence	-7104
▁acknowled	-7105
▁answering	-7106
▁permanent	-7107
▁tightened	-7108
▁underwear	-7109
▁warehouse	-7110
▁wasteland	-7111
▁exhaustion	-7112
▁supposedly	-7113
▁television	-7114
▁countryside	-7115
▁generations	-7116
mn	-7117
pa	-7118
arl	-7119
kin	-7120
▁ny	-7121
arks	-7122
aron	-7123
kind	-7124
stru	-7125
urdo	-7126
▁bom	-7127
▁plu	-7128
▁raw	-7129
▁tas	-7130
▁tug	-7131
eenth	-7132
heart	-7133
otion	-7134
udged	-7135
▁awak	-7136
▁bush	-7137
▁cind	-7138
▁clap	-7139
▁coro	-7140
▁folk	-7141
▁glor	-7142
▁ives	-7143
▁limp	-7144
▁rows	-7145
agenet	-7146
rained	-7147
▁agony	-7148
▁alaab	-7149
▁blink	-7150
▁candy	-7151
▁heres	-7152
▁jacks	-7153
▁marsh	-7154
▁prize	-7155
▁spray	-7156
▁strip	-7157
▁swore	-7158
▁weigh	-7159
▁affair	-7160
▁caress	-7161
▁hearts	-7162
▁hissed	-7163
▁idiots	-7164
▁method	-7165
▁plates	-7166
▁priest	-7167
▁reward	-7168
▁sheila	-7169
▁sorted	-7170
▁taller	-7171
▁altamar	-7172
▁bastard	-7173
▁discipl	-7174
▁fortune	-7175
▁mcmurdo	-7176
▁persons	-7177
▁seeking	-7178
▁tearing	-7179
▁walkway	-7180
▁widened	-7181
antically	-7182
▁accounts	-7183
▁adjusted	-7184
▁identity	-7185
▁magnific	-7186
▁monaster	-7187
▁realizes	-7188
▁suitcase	-7189
▁valiente	-7190
▁assembled	-7191
▁furniture	-7192
▁happiness	-7193
▁impatient	-7194
▁organized	-7195
▁preferred	-7196
▁operations	-7197
▁whispering	-7198
▁individuals	-7199
▁momentarily	-7200
▁plantagenet	-7201
▁consequences	-7202
▁construction	-7203
aky	-7204
ker	-7205
umps	-7206
wulf	-7207
▁ais	-7208
▁fox	-7209
▁rip	-7210
▁sip	-7211
▁tro	-7212
bbles	-7213
hmael	-7214
osure	-7215
usive	-7216
▁alto	-7217
▁bald	-7218
▁claw	-7219
▁duck	-7220
▁dump	-7221
▁glac	-7222
▁mast	-7223
▁mypo	-7224
▁obri	-7225
▁tool	-7226
▁bizar	-7227
▁bliss	-7228
▁email	-7229
▁joyce	-7230
▁laser	-7231
▁layer	-7232
▁neckl	-7233
▁paddy	-7234
▁pulse	-7235
▁recom	-7236
▁toast	-7237
▁trash	-7238
retched	-7239
▁cruise	-7240
▁dickie	-7241
▁ensure	-7242
▁laughs	-7243
▁lovely	-7244
▁manuel	-7245
▁refuse	-7246
▁sprang	-7247
▁sticks	-7248
▁surviv	-7249
▁theyve	-7250
▁unique	-7251
▁circles	-7252
▁ishmael	-7253
▁luckily	-7254
▁maurice	-7255
▁salazar	-7256
▁spiders	-7257
▁surgery	-7258
▁whistle	-7259
▁winding	-7260
▁audience	-7261
▁blankets	-7262
▁concerns	-7263
▁randwulf	-7264
▁sometime	-7265
▁steadily	-7266
▁withdrew	-7267
▁fireplace	-7268
▁naturally	-7269
▁sacrifice	-7270
la	-7271
bre	-7272
iac	-7273
lan	-7274
mit	-7275
oid	-7276
amba	-7277
bell	-7278
ccer	-7279
illa	-7280
mble	-7281
tons	-7282
umes	-7283
▁fee	-7284
▁gay	-7285
▁jol	-7286
▁lun	-7287
▁mac	-7288
▁mum	-7289
▁rud	-7290
iable	-7291
lying	-7292
opher	-7293
▁crad	-7294
▁geor	-7295
▁holl	-7296
▁keen	-7297
▁nons	-7298
▁noon	-7299
▁ribs	-7300
▁seal	-7301
▁semi	-7302
▁sets	-7303
▁suic	-7304
▁clark	-7305
▁equal	-7306
▁erich	-7307
▁parch	-7308
▁persu	-7309
▁pregn	-7310
▁sheer	-7311
▁skies	-7312
▁slung	-7313
▁spies	-7314
▁toile	-7315
▁yacht	-7316
▁adding	-7317
▁burgey	-7318
▁chocol	-7319
▁flower	-7320
▁intend	-7321
▁knives	-7322
▁lasted	-7323
▁mainly	-7324
▁nation	-7325
▁pounds	-7326
▁rubble	-7327
▁silhou	-7328
▁soccer	-7329
▁suffer	-7330
▁bizarre	-7331
▁bolivia	-7332
▁cabinet	-7333
▁cartier	-7334
▁clipped	-7335
▁compass	-7336
▁descend	-7337
▁essence	-7338
▁kilomet	-7339
▁parties	-7340
▁rushing	-7341
▁sadness	-7342
▁tractor	-7343
▁triumph	-7344
▁ancients	-7345
▁ceremony	-7346
▁crouched	-7347
▁delivery	-7348
▁describe	-7349
▁fountain	-7350
▁injuries	-7351
▁retorted	-7352
▁shopping	-7353
▁authority	-7354
▁copyright	-7355
▁emergency	-7356
▁neighbors	-7357
▁published	-7358
▁recovered	-7359
▁violently	-7360
▁previously	-7361
▁protecting	-7362
▁regardless	-7363
▁reputation	-7364
▁stretching	-7365
▁suggestion	-7366
▁constructed	-7367
▁frantically	-7368
▁impatiently	-7369
▁practically	-7370
▁straightened	-7371
phe	-7372
oons	-7373
▁gad	-7374
▁jar	-7375
▁rag	-7376
itors	-7377
▁bark	-7378
▁comr	-7379
▁cute	-7380
▁neld	-7381
▁stag	-7382
▁tips	-7383
▁twin	-7384
▁uses	-7385
onomic	-7386
▁aaron	-7387
▁brass	-7388
▁delay	-7389
▁elbow	-7390
▁psych	-7391
▁rider	-7392
▁robin	-7393
▁wrest	-7394
▁active	-7395
▁carlos	-7396
▁curved	-7397
▁darker	-7398
▁earned	-7399
▁museum	-7400
▁repeat	-7401
▁sandra	-7402
▁wallet	-7403
▁wildly	-7404
▁conduct	-7405
▁giggled	-7406
▁greyman	-7407
▁melissa	-7408
▁objects	-7409
▁pockets	-7410
▁utterly	-7411
▁wishing	-7412
▁inquired	-7413
▁monsters	-7414
▁narrowed	-7415
▁amusement	-7416
▁clutching	-7417
▁elaborate	-7418
▁suspicion	-7419
▁altogether	-7420
▁intentions	-7421
▁physically	-7422
▁thankfully	-7423
▁underwater	-7424
▁deliberately	-7425
uce	-7426
▁ba	-7427
aver	-7428
fact	-7429
ille	-7430
imum	-7431
osal	-7432
oses	-7433
teen	-7434
wing	-7435
▁cul	-7436
▁doz	-7437
▁tir	-7438
▁unp	-7439
▁urg	-7440
akers	-7441
ampus	-7442
gment	-7443
ppers	-7444
▁bury	-7445
▁deaf	-7446
▁flap	-7447
▁flor	-7448
▁hing	-7449
▁hips	-7450
▁jeff	-7451
▁sate	-7452
▁scri	-7453
▁senn	-7454
▁unin	-7455
▁vain	-7456
ainted	-7457
▁aloud	-7458
▁ankle	-7459
▁goods	-7460
▁memor	-7461
▁mused	-7462
▁numer	-7463
▁paths	-7464
▁rusty	-7465
▁savvy	-7466
▁scary	-7467
▁slipp	-7468
▁thigh	-7469
▁unfam	-7470
▁boston	-7471
▁cousin	-7472
▁debris	-7473
▁discon	-7474
▁drawer	-7475
▁drinks	-7476
▁eighty	-7477
▁glared	-7478
▁insane	-7479
▁insect	-7480
▁metres	-7481
▁parted	-7482
▁shirts	-7483
▁toilet	-7484
▁transf	-7485
▁volume	-7486
▁wampus	-7487
ological	-7488
onomicon	-7489
▁boulder	-7490
▁corners	-7491
▁damaged	-7492
▁improve	-7493
▁involve	-7494
▁kicking	-7495
▁mythras	-7496
▁pretend	-7497
▁sisters	-7498
▁suicide	-7499
▁assigned	-7500
▁blocking	-7501
▁compound	-7502
▁contrast	-7503
▁envelope	-7504
▁goodness	-7505
▁heritage	-7506
▁keyboard	-7507
▁nonsense	-7508
▁promptly	-7509
▁romantic	-7510
▁tracking	-7511
▁vespasia	-7512
▁chocolate	-7513
▁continent	-7514
▁interests	-7515
▁monastery	-7516
▁occasions	-7517
▁concerning	-7518
▁passageway	-7519
▁unfamiliar	-7520
▁encountered	-7521
▁observation	-7522
▁increasingly	-7523
▁necronomicon	-7524
▁determination	-7525
ado	-7526
ads	-7527
but	-7528
iar	-7529
lad	-7530
opy	-7531
▁00	-7532
berg	-7533
ills	-7534
oric	-7535
seen	-7536
▁arc	-7537
▁bac	-7538
▁eer	-7539
borne	-7540
ieson	-7541
inity	-7542
▁beds	-7543
▁bulk	-7544
▁ding	-7545
▁dipl	-7546
▁frig	-7547
▁gasp	-7548
▁harv	-7549
▁inex	-7550
▁ital	-7551
▁outc	-7552
▁rebu	-7553
▁rein	-7554
▁sofa	-7555
▁suck	-7556
▁tire	-7557
▁alien	-7558
▁betty	-7559
▁carav	-7560
▁click	-7561
▁freya	-7562
▁grain	-7563
▁mercy	-7564
▁pedro	-7565
▁punch	-7566
▁rasid	-7567
▁rowan	-7568
▁sarah	-7569
▁unple	-7570
▁wayne	-7571
▁yells	-7572
unching	-7573
▁breaks	-7574
▁fluger	-7575
▁gadget	-7576
▁legend	-7577
▁luxury	-7578
▁minded	-7579
▁neared	-7580
▁nerves	-7581
▁nurses	-7582
▁outfit	-7583
▁pastry	-7584
▁shakes	-7585
▁trails	-7586
▁vinnie	-7587
aneously	-7588
▁coroico	-7589
▁degrees	-7590
▁embrace	-7591
▁garbage	-7592
▁grasped	-7593
▁harness	-7594
▁islands	-7595
▁joining	-7596
▁largest	-7597
▁outline	-7598
▁pitched	-7599
▁puzzled	-7600
▁selling	-7601
▁serving	-7602
▁shotgun	-7603
▁upwards	-7604
▁centsure	-7605
▁deserved	-7606
▁distress	-7607
▁exciting	-7608
▁internet	-7609
▁pondered	-7610
▁striking	-7611
▁superior	-7612
▁villager	-7613
▁affection	-7614
▁concealed	-7615
▁horrified	-7616
▁manhattan	-7617
▁spreading	-7618
▁supported	-7619
▁attraction	-7620
▁chronicles	-7621
▁connecting	-7622
▁encouraged	-7623
▁explaining	-7624
▁indicating	-7625
▁international	-7626
oy	-7627
ggy	-7628
chab	-7629
irts	-7630
itar	-7631
mate	-7632
pers	-7633
phic	-7634
▁ori	-7635
▁syn	-7636
▁toy	-7637
▁andy	-7638
▁bolt	-7639
▁core	-7640
▁hond	-7641
▁impr	-7642
▁irre	-7643
▁merc	-7644
▁seas	-7645
▁sled	-7646
▁spat	-7647
▁tide	-7648
▁toll	-7649
▁trae	-7650
▁wars	-7651
▁zero	-7652
itches	-7653
mother	-7654
ounted	-7655
prints	-7656
▁dared	-7657
▁diabl	-7658
▁ebook	-7659
▁humor	-7660
▁media	-7661
▁ruins	-7662
▁sugar	-7663
▁trips	-7664
olution	-7665
ouncing	-7666
▁amazed	-7667
▁bonnie	-7668
▁borrow	-7669
▁cochab	-7670
▁commer	-7671
▁consci	-7672
▁depend	-7673
▁establ	-7674
▁genius	-7675
▁gravel	-7676
▁malach	-7677
▁region	-7678
▁runway	-7679
▁supper	-7680
▁walker	-7681
▁andrews	-7682
▁clasped	-7683
▁forcing	-7684
▁punched	-7685
▁secured	-7686
▁sincere	-7687
▁snorted	-7688
▁administ	-7689
▁airborne	-7690
▁circular	-7691
▁counting	-7692
▁deciding	-7693
▁fourteen	-7694
▁greeting	-7695
▁leofrics	-7696
▁lifeless	-7697
▁lifetime	-7698
▁machines	-7699
▁mistakes	-7700
▁reasoned	-7701
▁scanning	-7702
▁virginia	-7703
▁addressed	-7704
▁favourite	-7705
▁mechanics	-7706
▁nightmare	-7707
▁parchment	-7708
▁providing	-7709
▁telephone	-7710
▁cochabamba	-7711
▁positioned	-7712
▁illuminated	-7713
▁temperature	-7714
▁accomplished	-7715
▁photographer	-7716
▁entertainment	-7717
vis	-7718
▁ii	-7719
▁oo	-7720
▁zo	-7721
,000	-7722
ench	-7723
utes	-7724
▁fog	-7725
iator	-7726
ighed	-7727
▁cler	-7728
▁dish	-7729
▁ende	-7730
▁hits	-7731
▁lawn	-7732
▁rend	-7733
▁sarc	-7734
▁soup	-7735
▁beams	-7736
▁glare	-7737
▁glist	-7738
▁inher	-7739
▁meter	-7740
▁mypod	-7741
▁piled	-7742
▁snake	-7743
▁suite	-7744
▁tires	-7745
▁toler	-7746
▁tunic	-7747
▁arnder	-7748
▁ashore	-7749
▁bubble	-7750
▁excess	-7751
▁limits	-7752
▁satell	-7753
▁spider	-7754
▁stress	-7755
▁ticket	-7756
▁tipped	-7757
ifically	-7758
peration	-7759
▁clicked	-7760
▁clients	-7761
▁drained	-7762
▁farmers	-7763
▁flooded	-7764
▁huddled	-7765
▁mexican	-7766
▁missile	-7767
▁options	-7768
▁privile	-7769
▁servant	-7770
▁smoking	-7771
▁torches	-7772
▁attitude	-7773
▁carriage	-7774
▁consumed	-7775
▁dominion	-7776
▁notebook	-7777
▁painting	-7778
▁terribly	-7779
▁twisting	-7780
▁christian	-7781
▁countries	-7782
▁discussed	-7783
▁effective	-7784
▁examining	-7785
▁gradually	-7786
▁operating	-7787
▁relatives	-7788
▁submarine	-7789
▁terrorist	-7790
▁witnessed	-7791
▁attractive	-7792
▁bodyguards	-7793
▁centsurety	-7794
▁convincing	-7795
▁overwhelmed	-7796
ban	-7797
▁gh	-7798
anda	-7799
ateg	-7800
ndry	-7801
vous	-7802
▁bio	-7803
▁bou	-7804
▁cad	-7805
▁eag	-7806
▁gau	-7807
▁haz	-7808
▁hyp	-7809
▁ian	-7810
▁nva	-7811
▁pic	-7812
▁syd	-7813
▁yep	-7814
inous	-7815
mical	-7816
while	-7817
▁ages	-7818
▁eddy	-7819
▁fork	-7820
▁fury	-7821
▁ging	-7822
▁hire	-7823
▁leaf	-7824
▁raul	-7825
▁stif	-7826
acious	-7827
blance	-7828
lights	-7829
reated	-7830
▁ambul	-7831
▁annas	-7832
▁blows	-7833
▁canal	-7834
▁cindy	-7835
▁crest	-7836
▁drums	-7837
▁geoff	-7838
▁kinda	-7839
▁lobby	-7840
▁manif	-7841
▁naval	-7842
▁reins	-7843
▁stove	-7844
▁supre	-7845
▁vigil	-7846
▁avenue	-7847
▁barked	-7848
▁floors	-7849
▁framed	-7850
▁hister	-7851
▁indian	-7852
▁machin	-7853
▁marina	-7854
▁meadow	-7855
▁millie	-7856
▁passes	-7857
▁sipped	-7858
▁arndern	-7859
▁collins	-7860
▁despair	-7861
▁diablis	-7862
▁frantic	-7863
▁greatly	-7864
▁housing	-7865
▁reverse	-7866
▁swirled	-7867
▁systems	-7868
▁thanked	-7869
▁accurate	-7870
▁backward	-7871
▁belonged	-7872
▁drawings	-7873
▁gleaming	-7874
▁hovering	-7875
▁kneeling	-7876
▁mechanic	-7877
▁mentally	-7878
▁overcome	-7879
▁smoothly	-7880
▁unlocked	-7881
▁williams	-7882
▁contacted	-7883
▁installed	-7884
▁patiently	-7885
▁practiced	-7886
▁procedure	-7887
▁attempting	-7888
▁expedition	-7889
▁historical	-7890
▁impressive	-7891
▁unpleasant	-7892
▁coincidence	-7893
▁magnificent	-7894
▁preparations	-7895
rs	-7896
nas	-7897
▁nu	-7898
ckey	-7899
dons	-7900
rors	-7901
tail	-7902
▁atl	-7903
▁enl	-7904
▁gap	-7905
▁kin	-7906
▁lup	-7907
enses	-7908
iolet	-7909
netha	-7910
umble	-7911
uting	-7912
▁bout	-7913
▁chef	-7914
▁chim	-7915
▁cord	-7916
▁eman	-7917
▁exas	-7918
▁eyel	-7919
▁leve	-7920
▁mane	-7921
▁prey	-7922
▁ripp	-7923
▁robe	-7924
▁soil	-7925
▁unre	-7926
▁acade	-7927
▁ample	-7928
▁aston	-7929
▁bears	-7930
▁chaos	-7931
▁dimin	-7932
▁flies	-7933
▁gorge	-7934
▁motiv	-7935
▁paced	-7936
▁perce	-7937
▁spire	-7938
▁sunsh	-7939
renched	-7940
▁bellow	-7941
▁blacks	-7942
▁bohlen	-7943
▁colony	-7944
▁devast	-7945
▁formal	-7946
▁intact	-7947
▁magnet	-7948
▁monday	-7949
▁rebels	-7950
▁severe	-7951
▁shorts	-7952
▁thrott	-7953
▁timing	-7954
▁unfold	-7955
▁winked	-7956
▁affairs	-7957
▁african	-7958
▁agnetha	-7959
▁amongst	-7960
▁classes	-7961
▁discern	-7962
▁drawers	-7963
▁dungeon	-7964
▁eternal	-7965
▁francis	-7966
▁glimpse	-7967
▁granted	-7968
▁highest	-7969
▁inhabit	-7970
▁magical	-7971
▁masters	-7972
▁natasha	-7973
▁peoples	-7974
▁portion	-7975
▁pounded	-7976
▁praying	-7977
▁reduced	-7978
▁rubbing	-7979
▁sailing	-7980
▁screwed	-7981
▁smashed	-7982
▁watches	-7983
▁betrayed	-7984
▁feathers	-7985
▁greatest	-7986
▁honestly	-7987
▁increase	-7988
▁internal	-7989
▁numerous	-7990
▁regained	-7991
▁servants	-7992
▁situated	-7993
▁thirteen	-7994
▁whispers	-7995
▁attracted	-7996
▁cautioned	-7997
▁departure	-7998
▁everyones	-7999
▁potential	-8000
▁practical	-8001
▁streaming	-8002
▁adrenaline	-8003
▁afterwards	-8004
▁identified	-8005
▁importantly	-8006
▁overlooking	-8007
▁transferred	-8008
▁possibilities	-8009
py	-8010
aha	-8011
aza	-8012
car	-8013
ipt	-8014
brew	-8015
isto	-8016
nold	-8017
ours	-8018
plic	-8019
resh	-8020
▁dna	-8021
▁fau	-8022
▁fez	-8023
▁icy	-8024
▁luc	-8025
▁mug	-8026
▁web	-8027
▁wei	-8028
▁www	-8029
ansen	-8030
ember	-8031
ician	-8032
jamin	-8033
ounge	-8034
ville	-8035
▁aged	-8036
▁asce	-8037
▁bicy	-8038
▁brew	-8039
▁clay	-8040
▁conj	-8041
▁dict	-8042
▁horn	-8043
▁pudd	-8044
▁rice	-8045
▁silk	-8046
▁wolf	-8047
culiar	-8048
uished	-8049
▁appar	-8050
▁barre	-8051
▁blunt	-8052
▁brute	-8053
▁edith	-8054
▁glory	-8055
▁grief	-8056
▁handy	-8057
▁incon	-8058
▁mages	-8059
▁model	-8060
▁ninet	-8061
▁petey	-8062
▁phase	-8063
▁scare	-8064
▁shred	-8065
▁solar	-8066
▁tammy	-8067
▁wreck	-8068
iveness	-8069
oration	-8070
▁begged	-8071
▁bucket	-8072
▁candle	-8073
▁downer	-8074
▁elbows	-8075
▁ensign	-8076
▁gallop	-8077
▁hebrew	-8078
▁intrud	-8079
▁jersey	-8080
▁lounge	-8081
▁patted	-8082
▁sticky	-8083
▁subtle	-8084
▁wilder	-8085
▁wiping	-8086
▁attacks	-8087
▁chasing	-8088
▁clapham	-8089
▁contrib	-8090
▁edition	-8091
▁fiction	-8092
▁flicked	-8093
▁follows	-8094
▁forests	-8095
▁frances	-8096
▁lantern	-8097
▁madness	-8098
▁nations	-8099
▁outcome	-8100
▁produce	-8101
▁rescued	-8102
▁ringing	-8103
▁seorita	-8104
▁speaker	-8105
▁surgeon	-8106
▁warrant	-8107
▁battered	-8108
▁benjamin	-8109
▁comments	-8110
▁complain	-8111
▁creation	-8112
▁criminal	-8113
▁grenades	-8114
▁menacing	-8115
▁peculiar	-8116
▁potatoes	-8117
▁prospect	-8118
▁sprawled	-8119
▁vacation	-8120
▁beardmore	-8121
▁computers	-8122
▁determine	-8123
▁displayed	-8124
▁fortunate	-8125
▁immortals	-8126
▁remainder	-8127
▁tradition	-8128
▁commanding	-8129
▁discussing	-8130
▁motionless	-8131
▁reflection	-8132
▁vulnerable	-8133
▁intelligent	-8134
▁communication	-8135
▁instinctively	-8136
▁disappointment	-8137
li	-8138
ws	-8139
mes	-8140
put	-8141
▁ix	-8142
atus	-8143
izzy	-8144
mark	-8145
sers	-8146
utor	-8147
west	-8148
▁nic	-8149
▁orb	-8150
▁rim	-8151
celer	-8152
itals	-8153
oning	-8154
▁cert	-8155
▁deme	-8156
▁edas	-8157
▁epic	-8158
▁jews	-8159
▁mild	-8160
▁mode	-8161
▁nois	-8162
▁rack	-8163
▁recl	-8164
▁sher	-8165
▁tact	-8166
▁whoa	-8167
▁wins	-8168
▁cells	-8169
▁compr	-8170
▁creep	-8171
▁crown	-8172
▁drill	-8173
▁fewer	-8174
▁fiery	-8175
▁filth	-8176
▁greed	-8177
▁groan	-8178
▁laure	-8179
▁legal	-8180
▁logic	-8181
▁lupin	-8182
▁nerve	-8183
▁scout	-8184
▁stool	-8185
▁towns	-8186
▁types	-8187
▁arnold	-8188
▁basket	-8189
▁duties	-8190
▁miguel	-8191
▁napoli	-8192
▁obrien	-8193
▁rabbit	-8194
▁sailed	-8195
▁spaces	-8196
▁thirst	-8197
▁tugged	-8198
▁worthy	-8199
▁yanked	-8200
▁acceler	-8201
▁avoided	-8202
▁brenner	-8203
▁concept	-8204
▁echoing	-8205
▁exagger	-8206
▁failing	-8207
▁flushed	-8208
▁furious	-8209
▁germans	-8210
▁healing	-8211
▁hovered	-8212
▁loading	-8213
▁spilled	-8214
▁stabbed	-8215
▁cautious	-8216
▁comprehe	-8217
▁fortress	-8218
▁murmured	-8219
▁pregnant	-8220
▁recovery	-8221
▁restless	-8222
▁strolled	-8223
▁sunshine	-8224
▁wrapping	-8225
▁awareness	-8226
▁cigarette	-8227
▁freighter	-8228
▁gladiator	-8229
▁intellect	-8230
▁lingering	-8231
▁proceeded	-8232
▁spiritual	-8233
▁staggered	-8234
▁conscience	-8235
▁developing	-8236
▁progressed	-8237
▁registered	-8238
▁disappearing	-8239
ais	-8240
ala	-8241
alt	-8242
ann	-8243
ees	-8244
nic	-8245
cies	-8246
elia	-8247
hire	-8248
onym	-8249
ooks	-8250
▁apr	-8251
▁axe	-8252
▁bew	-8253
▁dot	-8254
acity	-8255
agues	-8256
echua	-8257
ortex	-8258
▁beck	-8259
▁clip	-8260
▁fare	-8261
▁fulf	-8262
▁huss	-8263
▁knot	-8264
▁lump	-8265
▁maid	-8266
▁maps	-8267
▁nope	-8268
▁peep	-8269
▁pump	-8270
▁rats	-8271
▁ruin	-8272
▁taxa	-8273
▁webs	-8274
▁wool	-8275
bbling	-8276
▁armor	-8277
▁bikes	-8278
▁bride	-8279
▁chant	-8280
▁chess	-8281
▁churn	-8282
▁coord	-8283
▁flags	-8284
▁hondo	-8285
▁overt	-8286
▁perch	-8287
▁picks	-8288
▁shudd	-8289
▁terra	-8290
▁twink	-8291
▁aching	-8292
▁aiming	-8293
▁brakes	-8294
▁canopy	-8295
▁collar	-8296
▁columb	-8297
▁damall	-8298
▁diplom	-8299
▁hockey	-8300
▁lawyer	-8301
▁pencil	-8302
▁unsure	-8303
▁upside	-8304
quarters	-8305
ulations	-8306
▁battles	-8307
▁earnest	-8308
▁economy	-8309
▁erupted	-8310
▁growled	-8311
▁johnnys	-8312
▁lookout	-8313
▁quechua	-8314
▁readily	-8315
▁realise	-8316
▁tighter	-8317
▁weighed	-8318
▁workers	-8319
▁worries	-8320
▁driveway	-8321
▁equipped	-8322
▁fastened	-8323
▁lighting	-8324
▁multiple	-8325
▁patterns	-8326
▁politely	-8327
▁settling	-8328
▁stealing	-8329
▁sweeping	-8330
▁teachers	-8331
▁activated	-8332
▁automatic	-8333
▁countless	-8334
▁overnight	-8335
▁personnel	-8336
▁precisely	-8337
▁treasures	-8338
▁retirement	-8339
▁washington	-8340
▁authorities	-8341
▁significant	-8342
▁acknowledged	-8343
▁headquarters	-8344
▁specifically	-8345
▁successfully	-8346
yr	-8347
aph	-8348
awl	-8349
fos	-8350
ghe	-8351
iva	-8352
mic	-8353
▁eh	-8354
▁od	-8355
gans	-8356
uish	-8357
ules	-8358
▁rus	-8359
belie	-8360
fosse	-8361
kirts	-8362
▁cake	-8363
▁filt	-8364
▁gust	-8365
▁hend	-8366
▁hike	-8367
▁hobs	-8368
▁hows	-8369
▁inma	-8370
▁june	-8371
▁lena	-8372
▁loop	-8373
▁ours	-8374
▁phen	-8375
▁remn	-8376
▁slit	-8377
▁sluv	-8378
▁sock	-8379
▁tarp	-8380
▁vest	-8381
ington	-8382
istics	-8383
▁bills	-8384
▁chart	-8385
▁enric	-8386
▁grabs	-8387
▁grows	-8388
▁hawks	-8389
▁jewel	-8390
▁knuck	-8391
▁leapt	-8392
▁lever	-8393
▁marie	-8394
▁muddy	-8395
▁pills	-8396
▁sanct	-8397
▁shops	-8398
▁songs	-8399
▁tooth	-8400
▁assess	-8401
▁barbar	-8402
▁buying	-8403
▁causes	-8404
▁commit	-8405
▁demean	-8406
▁doubts	-8407
▁dracul	-8408
▁fisher	-8409
▁flared	-8410
▁freely	-8411
▁hammer	-8412
▁hatred	-8413
▁humiks	-8414
▁infect	-8415
▁issues	-8416
▁jansen	-8417
▁marble	-8418
▁obtain	-8419
▁pacing	-8420
▁prayed	-8421
▁pushes	-8422
▁tended	-8423
▁vortex	-8424
▁wicked	-8425
▁anyways	-8426
▁bounced	-8427
▁chuckle	-8428
▁drowned	-8429
▁malachi	-8430
▁mankind	-8431
▁notices	-8432
▁offices	-8433
▁plunged	-8434
▁predict	-8435
▁profile	-8436
▁shadowy	-8437
▁soaking	-8438
▁terrain	-8439
▁trailed	-8440
▁unbelie	-8441
▁variety	-8442
▁wealthy	-8443
▁acquaint	-8444
▁brighter	-8445
▁brightly	-8446
▁clutched	-8447
▁enhanced	-8448
▁exposing	-8449
▁frefosse	-8450
▁gestured	-8451
▁hardened	-8452
▁humanity	-8453
▁identify	-8454
▁necklace	-8455
▁negative	-8456
▁politics	-8457
▁strongly	-8458
▁trailing	-8459
▁weakness	-8460
▁ancestors	-8461
▁apprehens	-8462
▁basically	-8463
▁blackness	-8464
▁customers	-8465
▁emotional	-8466
▁essential	-8467
▁fashioned	-8468
▁finishing	-8469
▁introduce	-8470
▁machinery	-8471
▁partially	-8472
▁permitted	-8473
▁recording	-8474
▁substance	-8475
▁disturbing	-8476
▁downstream	-8477
▁footprints	-8478
▁foundation	-8479
▁alternative	-8480
▁anticipated	-8481
▁distraction	-8482
▁electricity	-8483
▁considerable	-8484
bi	-8485
ays	-8486
bos	-8487
ima	-8488
olf	-8489
xed	-8490
fted	-8491
hent	-8492
inte	-8493
ippe	-8494
uers	-8495
▁100	-8496
▁bis	-8497
▁bun	-8498
▁dus	-8499
▁gur	-8500
▁mam	-8501
▁toe	-8502
▁uhm	-8503
illes	-8504
ipher	-8505
lands	-8506
ooked	-8507
▁acts	-8508
▁brid	-8509
▁crum	-8510
▁denn	-8511
▁hens	-8512
▁jerk	-8513
▁junk	-8514
▁lust	-8515
▁mars	-8516
▁odds	-8517
▁root	-8518
▁sale	-8519
▁sung	-8520
▁tack	-8521
▁tile	-8522
▁warn	-8523
utions	-8524
▁award	-8525
▁barry	-8526
▁cartw	-8527
▁congr	-8528
▁float	-8529
▁hardc	-8530
▁immig	-8531
▁slack	-8532
▁souls	-8533
▁spear	-8534
▁stink	-8535
▁surge	-8536
▁talks	-8537
section	-8538
uttered	-8539
▁brutal	-8540
▁dozens	-8541
▁dumped	-8542
▁engulf	-8543
▁hyster	-8544
▁moaned	-8545
▁phenom	-8546
▁prosec	-8547
▁scheme	-8548
▁simult	-8549
▁statue	-8550
▁status	-8551
▁traced	-8552
▁violet	-8553
▁accused	-8554
▁authent	-8555
▁caravan	-8556
▁casting	-8557
▁catches	-8558
▁compart	-8559
▁descent	-8560
▁distrib	-8561
▁examine	-8562
▁fantasy	-8563
▁guarded	-8564
▁italian	-8565
▁lessons	-8566
▁scolded	-8567
▁summers	-8568
▁acquired	-8569
▁armitage	-8570
▁avoiding	-8571
▁campfire	-8572
▁civilian	-8573
▁combined	-8574
▁extraord	-8575
▁glorious	-8576
▁halfling	-8577
▁judgment	-8578
▁majority	-8579
▁matching	-8580
▁pouffant	-8581
▁princess	-8582
▁purposes	-8583
▁religion	-8584
▁remarked	-8585
▁batteries	-8586
▁committed	-8587
▁companies	-8588
▁curiously	-8589
▁enjoyment	-8590
▁excitedly	-8591
▁meteorite	-8592
▁outskirts	-8593
▁perimeter	-8594
▁phillippe	-8595
▁survivors	-8596
▁accomplish	-8597
▁conspiracy	-8598
▁flickering	-8599
▁pretending	-8600
▁professors	-8601
▁settlement	-8602
▁spectacular	-8603
▁overwhelming	-8604
▁automatically	-8605
▁conversations	-8606
alf	-8607
chy	-8608
esy	-8609
mun	-8610
roy	-8611
▁25	-8612
agan	-8613
▁gig	-8614
▁jab	-8615
▁jan	-8616
▁sla	-8617
▁tob	-8618
▁ups	-8619
ancys	-8620
chair	-8621
heard	-8622
ishop	-8623
ppled	-8624
rance	-8625
udder	-8626
▁cask	-8627
▁demo	-8628
▁flin	-8629
▁fund	-8630
▁jeep	-8631
▁meas	-8632
▁nods	-8633
▁pave	-8634
▁roan	-8635
▁salv	-8636
▁scur	-8637
▁sept	-8638
▁tune	-8639
▁unbe	-8640
▁wrap	-8641
atural	-8642
ixture	-8643
▁beans	-8644
▁beats	-8645
▁bucks	-8646
▁burns	-8647
▁confl	-8648
▁eerie	-8649
▁gloom	-8650
▁joked	-8651
▁merch	-8652
▁nostr	-8653
▁paces	-8654
▁plaza	-8655
▁poked	-8656
▁recip	-8657
▁rigid	-8658
▁shack	-8659
▁units	-8660
tenance	-8661
▁ankles	-8662
▁calvin	-8663
▁campus	-8664
▁chains	-8665
▁cotton	-8666
▁exceed	-8667
▁guided	-8668
▁hoarse	-8669
▁hopped	-8670
▁hussen	-8671
▁nancys	-8672
▁panels	-8673
▁pinned	-8674
▁proven	-8675
▁ragged	-8676
▁refres	-8677
▁refuge	-8678
▁select	-8679
▁sphere	-8680
▁spying	-8681
▁stares	-8682
▁sydney	-8683
▁anxiety	-8684
▁captors	-8685
▁disting	-8686
▁fellows	-8687
▁fingert	-8688
▁genetic	-8689
▁install	-8690
▁logical	-8691
▁majesty	-8692
▁martirs	-8693
▁miracle	-8694
▁pleaded	-8695
▁pursuit	-8696
▁screens	-8697
▁shudder	-8698
▁streams	-8699
▁agitated	-8700
▁chemical	-8701
▁generous	-8702
▁malcolms	-8703
▁manifest	-8704
▁recalled	-8705
▁steering	-8706
▁trembled	-8707
▁apparatus	-8708
▁bothering	-8709
▁merrodons	-8710
▁moonlight	-8711
▁painfully	-8712
▁reference	-8713
▁retreated	-8714
▁satellite	-8715
▁villagers	-8716
▁colleagues	-8717
▁compliment	-8718
▁confronted	-8719
▁electronic	-8720
▁enthusiasm	-8721
▁newspapers	-8722
▁reassuring	-8723
▁thoughtful	-8724
▁vegetation	-8725
▁christopher	-8726
▁combination	-8727
▁fascinating	-8728
▁maintenance	-8729
▁performance	-8730
▁personality	-8731
▁concentrated	-8732
oms	-8733
vet	-8734
zer	-8735
▁41	-8736
ardo	-8737
eded	-8738
gled	-8739
icit	-8740
ller	-8741
load	-8742
mber	-8743
orus	-8744
vant	-8745
ygen	-8746
▁agg	-8747
▁bod	-8748
▁cri	-8749
▁som	-8750
acles	-8751
comed	-8752
cracy	-8753
derer	-8754
ricks	-8755
umper	-8756
▁arts	-8757
▁coff	-8758
▁cong	-8759
▁dope	-8760
▁dorm	-8761
▁gulf	-8762
▁idio	-8763
▁ired	-8764
▁ramm	-8765
▁ther	-8766
▁thud	-8767
▁vamp	-8768
▁wink	-8769
▁zone	-8770
akable	-8771
inates	-8772
master	-8773
▁alike	-8774
▁clust	-8775
▁crews	-8776
▁cries	-8777
▁diver	-8778
▁elite	-8779
▁exter	-8780
▁frick	-8781
▁hears	-8782
▁ideal	-8783
▁indul	-8784
▁irish	-8785
▁petro	-8786
▁resem	-8787
▁safer	-8788
▁smirk	-8789
▁sting	-8790
▁thurs	-8791
▁vault	-8792
▁venge	-8793
vations	-8794
▁advert	-8795
▁behalf	-8796
▁biting	-8797
▁calmed	-8798
▁daring	-8799
▁dennis	-8800
▁extrav	-8801
▁glowed	-8802
▁jolies	-8803
▁lately	-8804
▁mortos	-8805
▁oxygen	-8806
▁wander	-8807
▁airboat	-8808
▁airlock	-8809
▁blurted	-8810
▁circuit	-8811
▁clamped	-8812
▁grounds	-8813
▁handled	-8814
▁outward	-8815
▁patrick	-8816
▁princip	-8817
▁resumed	-8818
▁sarcast	-8819
▁sharing	-8820
▁tripped	-8821
▁wonders	-8822
▁worship	-8823
▁announce	-8824
▁arrested	-8825
▁diamonds	-8826
▁hillside	-8827
▁involunt	-8828
▁murderer	-8829
▁polished	-8830
▁relative	-8831
▁reverber	-8832
▁riverman	-8833
▁smelling	-8834
▁strained	-8835
▁towering	-8836
▁welcomed	-8837
▁ambulance	-8838
▁disturbed	-8839
▁interpret	-8840
▁intrigued	-8841
▁shuddered	-8842
▁treatment	-8843
▁fingertips	-8844
▁instrument	-8845
▁shariannas	-8846
▁suggesting	-8847
▁thoroughly	-8848
▁wilderness	-8849
▁grandmother	-8850
▁resemblance	-8851
▁arrangements	-8852
▁confederates	-8853
▁reenactments	-8854
▁sarcastically	-8855
30	-8856
cl	-8857
apt	-8858
awk	-8859
bon	-8860
▁45	-8861
▁fi	-8862
hift	-8863
town	-8864
wind	-8865
▁hee	-8866
▁orc	-8867
▁rod	-8868
armed	-8869
force	-8870
idium	-8871
point	-8872
vable	-8873
▁amid	-8874
▁choo	-8875
▁duff	-8876
▁ecst	-8877
▁fans	-8878
▁flaw	-8879
▁haha	-8880
▁herd	-8881
▁prem	-8882
▁rays	-8883
▁sequ	-8884
▁sple	-8885
▁trop	-8886
▁whoo	-8887
ilized	-8888
keeper	-8889
ulting	-8890
▁affir	-8891
▁blake	-8892
▁depth	-8893
▁flour	-8894
▁helen	-8895
▁intim	-8896
▁ixlan	-8897
▁leans	-8898
▁mound	-8899
▁nephe	-8900
▁prodd	-8901
▁ricks	-8902
▁stubb	-8903
▁swive	-8904
▁tasks	-8905
▁tiles	-8906
▁troll	-8907
▁ambush	-8908
▁assail	-8909
▁bewild	-8910
▁bishop	-8911
▁cowboy	-8912
▁crisis	-8913
▁deaths	-8914
▁divers	-8915
▁edward	-8916
▁erebos	-8917
▁extent	-8918
▁hauled	-8919
▁idiocy	-8920
▁lincol	-8921
▁medium	-8922
▁pillar	-8923
▁prover	-8924
▁regain	-8925
▁sparks	-8926
▁unhapp	-8927
▁advised	-8928
▁benefit	-8929
▁congrat	-8930
▁corrupt	-8931
▁cruiser	-8932
▁dreamed	-8933
▁eagerly	-8934
▁florida	-8935
▁helpful	-8936
▁insects	-8937
▁iridium	-8938
▁laureby	-8939
▁printed	-8940
▁skipper	-8941
▁swallow	-8942
▁vaguely	-8943
▁vessels	-8944
▁whirled	-8945
▁absorbed	-8946
▁altitude	-8947
▁critical	-8948
▁illusion	-8949
▁magazine	-8950
▁passport	-8951
▁proposed	-8952
▁reserved	-8953
▁swirling	-8954
▁tattered	-8955
▁thursday	-8956
▁villages	-8957
▁antarctic	-8958
▁container	-8959
▁countered	-8960
▁currently	-8961
▁dedicated	-8962
▁demanding	-8963
▁encourage	-8964
▁flugerton	-8965
▁identical	-8966
▁makeshift	-8967
▁miniature	-8968
▁parachute	-8969
▁receiving	-8970
▁september	-8971
▁seventeen	-8972
▁cartwright	-8973
▁fascinated	-8974
▁officially	-8975
▁possession	-8976
▁situations	-8977
▁desperation	-8978
▁engineering	-8979
▁established	-8980
▁inhabitants	-8981
▁embarrassment	-8982
vo	-8983
wr	-8984
iry	-8985
mob	-8986
rug	-8987
bled	-8988
gand	-8989
gypt	-8990
rane	-8991
rene	-8992
sole	-8993
▁162	-8994
▁cer	-8995
▁gag	-8996
▁hom	-8997
▁owe	-8998
▁raz	-8999
▁rit	-9000
arded	-9001
ceded	-9002
iated	-9003
leton	-9004
stick	-9005
unken	-9006
▁bart	-9007
▁dude	-9008
▁fisk	-9009
▁lion	-9010
▁mcel	-9011
▁ridd	-9012
▁vlad	-9013
anging	-9014
eteria	-9015
illery	-9016
lasses	-9017
nesday	-9018
ptions	-9019
ulsion	-9020
▁agend	-9021
▁aisle	-9022
▁alche	-9023
▁brune	-9024
▁buddy	-9025
▁chalk	-9026
▁desol	-9027
▁domin	-9028
▁dowel	-9029
▁egypt	-9030
▁encir	-9031
▁grant	-9032
▁knots	-9033
▁locks	-9034
▁nails	-9035
▁omaha	-9036
▁pouch	-9037
▁prime	-9038
▁print	-9039
▁radar	-9040
▁roots	-9041
▁scars	-9042
▁score	-9043
▁shrug	-9044
▁theat	-9045
▁tiran	-9046
▁turmo	-9047
▁twent	-9048
▁unnot	-9049
logical	-9050
osition	-9051
▁absent	-9052
▁artist	-9053
▁attach	-9054
▁beaten	-9055
▁dawned	-9056
▁discer	-9057
▁dollar	-9058
▁hunted	-9059
▁indign	-9060
▁kisses	-9061
▁naught	-9062
▁notion	-9063
▁oldest	-9064
▁outcro	-9065
▁rented	-9066
▁serial	-9067
▁shrugs	-9068
▁sucked	-9069
iciently	-9070
standing	-9071
▁bending	-9072
▁bissell	-9073
▁buttons	-9074
▁cannons	-9075
▁captive	-9076
▁charges	-9077
▁clarity	-9078
▁contest	-9079
▁emitted	-9080
▁emptied	-9081
▁evident	-9082
▁forming	-9083
▁gasping	-9084
▁mcelroy	-9085
▁mixture	-9086
▁motorcy	-9087
▁primary	-9088
▁prosper	-9089
▁protrud	-9090
▁smirked	-9091
▁springs	-9092
▁squeeze	-9093
▁stacked	-9094
▁stealth	-9095
▁tossing	-9096
▁trooper	-9097
▁viewing	-9098
▁affected	-9099
▁arrogant	-9100
▁curtains	-9101
▁gripping	-9102
▁imperial	-9103
▁inserted	-9104
▁panicked	-9105
▁regarded	-9106
▁shallend	-9107
▁snatched	-9108
▁soothing	-9109
▁sympathy	-9110
▁worrying	-9111
▁authentic	-9112
▁boyfriend	-9113
▁cafeteria	-9114
▁certainty	-9115
▁exchanged	-9116
▁extending	-9117
▁insurance	-9118
▁languages	-9119
▁pretended	-9120
▁repeating	-9121
▁retrieved	-9122
▁waterfall	-9123
▁wednesday	-9124
▁comprehend	-9125
▁containing	-9126
▁discomfort	-9127
▁inspection	-9128
▁maintained	-9129
▁procession	-9130
▁revelation	-9131
▁yourselves	-9132
▁association	-9133
▁development	-9134
▁simultaneously	-9135
ja	-9136
agr	-9137
bow	-9138
ige	-9139
▁og	-9140
▁ol	-9141
derm	-9142
dged	-9143
hand	-9144
lest	-9145
llen	-9146
▁elf	-9147
▁gym	-9148
▁hay	-9149
▁piz	-9150
▁sme	-9151
aired	-9152
esome	-9153
fying	-9154
lings	-9155
uated	-9156
▁adop	-9157
▁eleg	-9158
▁elim	-9159
▁foam	-9160
▁hust	-9161
▁quay	-9162
▁reun	-9163
▁sang	-9164
▁sera	-9165
▁smug	-9166
▁subd	-9167
▁tiss	-9168
itious	-9169
napped	-9170
▁alter	-9171
▁ander	-9172
▁artif	-9173
▁brake	-9174
▁brisk	-9175
▁chips	-9176
▁coats	-9177
▁disag	-9178
▁ditch	-9179
▁dizzy	-9180
▁gifts	-9181
▁haste	-9182
▁hurts	-9183
▁joint	-9184
▁malay	-9185
▁monst	-9186
▁moron	-9187
▁obliv	-9188
▁outst	-9189
▁overs	-9190
▁skept	-9191
▁squat	-9192
▁topic	-9193
▁whale	-9194
dermott	-9195
▁brunei	-9196
▁canada	-9197
▁cooler	-9198
▁county	-9199
▁dissip	-9200
▁extend	-9201
▁guitar	-9202
▁intric	-9203
▁minnes	-9204
▁nephew	-9205
▁noises	-9206
▁riders	-9207
▁scenes	-9208
▁shouts	-9209
▁simone	-9210
▁skelet	-9211
▁sliced	-9212
▁speaks	-9213
▁stored	-9214
▁talent	-9215
▁tasted	-9216
▁thrill	-9217
▁visits	-9218
▁waking	-9219
▁weaver	-9220
▁willie	-9221
izations	-9222
▁blankly	-9223
▁expense	-9224
▁faintly	-9225
▁footing	-9226
▁formula	-9227
▁glances	-9228
▁grunted	-9229
▁hastily	-9230
▁humming	-9231
▁licking	-9232
▁lincoln	-9233
▁martial	-9234
▁proverb	-9235
▁pumping	-9236
▁rangers	-9237
▁roaring	-9238
▁sweater	-9239
▁turmoil	-9240
▁victory	-9241
▁wendell	-9242
▁bolivian	-9243
▁circling	-9244
▁colorful	-9245
▁comrades	-9246
▁crumpled	-9247
▁educated	-9248
▁gingerly	-9249
▁nostrils	-9250
▁stubborn	-9251
▁treacher	-9252
▁trousers	-9253
▁ventured	-9254
▁apologize	-9255
▁appearing	-9256
▁artillery	-9257
▁clambered	-9258
▁correctly	-9259
▁flickered	-9260
▁francesca	-9261
▁furiously	-9262
▁ignorance	-9263
▁instincts	-9264
▁mcdermott	-9265
▁protested	-9266
▁resembled	-9267
▁stupidity	-9268
▁acceptable	-9269
▁assignment	-9270
▁frequently	-9271
▁appreciated	-9272
▁communicate	-9273
▁connections	-9274
▁differences	-9275
▁helicopters	-9276
▁understands	-9277
▁volunteered	-9278
ek	-9279
sm	-9280
ago	-9281
low	-9282
nut	-9283
ody	-9284
urd	-9285
▁bi	-9286
aine	-9287
awak	-9288
away	-9289
ethe	-9290
gard	-9291
gthe	-9292
shit	-9293
▁aub	-9294
▁phr	-9295
▁pip	-9296
attle	-9297
flies	-9298
iffel	-9299
ivity	-9300
power	-9301
stone	-9302
▁afgh	-9303
▁bisc	-9304
▁bump	-9305
▁gard	-9306
▁kare	-9307
▁luca	-9308
▁manu	-9309
▁mole	-9310
▁neut	-9311
▁perc	-9312
▁rico	-9313
▁rome	-9314
▁stan	-9315
▁toys	-9316
▁tues	-9317
▁volc	-9318
▁whip	-9319
▁zies	-9320
herent	-9321
izable	-9322
nation	-9323
ograph	-9324
omeday	-9325
ranean	-9326
▁ammun	-9327
▁anten	-9328
▁aroma	-9329
▁brian	-9330
▁brook	-9331
▁calis	-9332
▁clung	-9333
▁crumb	-9334
▁cuffs	-9335
▁deplo	-9336
▁fatal	-9337
▁piles	-9338
▁prick	-9339
▁rings	-9340
▁rumor	-9341
▁scrap	-9342
▁shaky	-9343
▁snort	-9344
▁stain	-9345
▁strap	-9346
▁towel	-9347
▁traum	-9348
▁tribe	-9349
▁vital	-9350
▁waits	-9351
▁wider	-9352
illance	-9353
rations	-9354
▁applic	-9355
▁auburn	-9356
▁babies	-9357
▁butler	-9358
▁client	-9359
▁compar	-9360
▁eiffel	-9361
▁encirc	-9362
▁fricka	-9363
▁ghosts	-9364
▁global	-9365
▁growth	-9366
▁heated	-9367
▁hobson	-9368
▁impass	-9369
▁infant	-9370
▁injury	-9371
▁lazily	-9372
▁mouths	-9373
▁partly	-9374
▁scenar	-9375
▁shells	-9376
▁sights	-9377
▁suited	-9378
▁targhe	-9379
▁unmist	-9380
▁violin	-9381
▁winced	-9382
▁almaida	-9383
▁article	-9384
▁awaited	-9385
▁barrels	-9386
▁coughed	-9387
▁drogand	-9388
▁drunken	-9389
▁enterpr	-9390
▁flights	-9391
▁germany	-9392
▁impress	-9393
▁lecture	-9394
▁needles	-9395
▁observe	-9396
▁powered	-9397
▁privacy	-9398
▁reserve	-9399
▁santini	-9400
▁sniders	-9401
▁someday	-9402
▁stormed	-9403
▁tangled	-9404
▁teasing	-9405
▁testing	-9406
▁tickets	-9407
▁tourist	-9408
▁travels	-9409
▁tuesday	-9410
▁approval	-9411
▁attended	-9412
▁boarding	-9413
▁bullshit	-9414
▁conflict	-9415
▁detailed	-9416
▁employed	-9417
▁generals	-9418
▁marching	-9419
▁phenomen	-9420
▁recorded	-9421
▁remnants	-9422
▁resolved	-9423
▁slippery	-9424
▁speeding	-9425
▁upstream	-9426
▁warriors	-9427
▁attacking	-9428
▁depending	-9429
▁estimated	-9430
▁minnesota	-9431
▁mysteries	-9432
▁sentences	-9433
▁sparkling	-9434
▁stammered	-9435
▁standards	-9436
▁suspended	-9437
▁unnoticed	-9438
▁vengeance	-9439
▁ammunition	-9440
▁punishment	-9441
▁recognised	-9442
▁reflecting	-9443
▁repeatedly	-9444
▁revolution	-9445
▁supporting	-9446
▁beautifully	-9447
▁examination	-9448
▁appreciation	-9449
▁considerably	-9450
▁surveillance	-9451
imo	-9452
▁sg	-9453
acle	-9454
alem	-9455
bean	-9456
cous	-9457
emet	-9458
ogue	-9459
tery	-9460
udge	-9461
wort	-9462
▁bos	-9463
▁cin	-9464
▁dub	-9465
▁era	-9466
▁fet	-9467
▁gil	-9468
▁htt	-9469
▁jap	-9470
▁roo	-9471
▁suf	-9472
▁tab	-9473
▁tai	-9474
▁yel	-9475
asted	-9476
eline	-9477
ggles	-9478
ishes	-9479
shire	-9480
uming	-9481
▁asyl	-9482
▁bold	-9483
▁boud	-9484
▁brim	-9485
▁cush	-9486
▁dusk	-9487
▁excl	-9488
▁fits	-9489
▁godd	-9490
▁gwen	-9491
▁helm	-9492
▁mary	-9493
▁math	-9494
▁maze	-9495
▁nave	-9496
▁nova	-9497
▁pron	-9498
▁reco	-9499
▁sunk	-9500
▁vert	-9501
ission	-9502
▁abund	-9503
▁almas	-9504
▁amber	-9505
▁basis	-9506
▁berth	-9507
▁burnt	-9508
▁carib	-9509
▁chasm	-9510
▁curse	-9511
▁edged	-9512
▁farms	-9513
▁flatt	-9514
▁jerus	-9515
▁johns	-9516
▁kayan	-9517
▁ledge	-9518
▁manus	-9519
▁moist	-9520
▁murky	-9521
▁pizza	-9522
▁rebel	-9523
▁rises	-9524
▁sails	-9525
▁taunt	-9526
▁vivid	-9527
ciously	-9528
▁beings	-9529
▁borneo	-9530
▁crates	-9531
▁heaved	-9532
▁hooves	-9533
▁liking	-9534
▁nathan	-9535
▁pastor	-9536
▁profit	-9537
▁pursue	-9538
▁revers	-9539
▁savage	-9540
▁shifts	-9541
▁slades	-9542
▁solved	-9543
▁sparse	-9544
▁stench	-9545
▁territ	-9546
▁tested	-9547
▁trunks	-9548
▁unexpl	-9549
▁unseen	-9550
▁awesome	-9551
▁choices	-9552
▁doubled	-9553
▁georges	-9554
▁glacier	-9555
▁include	-9556
▁matched	-9557
▁musical	-9558
▁operate	-9559
▁overall	-9560
▁perched	-9561
▁shorter	-9562
▁skipped	-9563
▁urgency	-9564
▁wasting	-9565
▁wheeled	-9566
▁brushing	-9567
▁cracking	-9568
▁detected	-9569
▁downward	-9570
▁dreaming	-9571
▁engulfed	-9572
▁inclined	-9573
▁manufact	-9574
▁messages	-9575
▁nikolais	-9576
▁philosop	-9577
▁restrain	-9578
▁shifting	-9579
▁shuffled	-9580
▁stallion	-9581
▁stations	-9582
▁watchers	-9583
▁converted	-9584
▁dismissed	-9585
▁generator	-9586
▁meanwhile	-9587
▁sensitive	-9588
▁associated	-9589
▁cheerfully	-9590
▁destroying	-9591
▁manuscript	-9592
▁conclusions	-9593
▁shallendara	-9594
▁accommodation	-9595
▁concentration	-9596
yn	-9597
alp	-9598
bag	-9599
run	-9600
sis	-9601
yre	-9602
▁ew	-9603
▁yo	-9604
agon	-9605
cons	-9606
iens	-9607
uled	-9608
▁alf	-9609
▁dre	-9610
▁edu	-9611
▁gum	-9612
▁hyd	-9613
▁jut	-9614
▁nig	-9615
▁tin	-9616
amble	-9617
asion	-9618
berry	-9619
bling	-9620
cible	-9621
ersed	-9622
itate	-9623
piece	-9624
rable	-9625
▁adds	-9626
▁bind	-9627
▁cody	-9628
▁dias	-9629
▁fict	-9630
▁flip	-9631
▁igne	-9632
▁mant	-9633
▁mock	-9634
▁mour	-9635
▁oops	-9636
▁outl	-9637
▁peak	-9638
▁raid	-9639
▁rumm	-9640
▁shoe	-9641
▁sinc	-9642
▁tran	-9643
▁trot	-9644
▁vene	-9645
▁writ	-9646
aganza	-9647
idated	-9648
inable	-9649
▁ached	-9650
▁brows	-9651
▁charm	-9652
▁codes	-9653
▁flask	-9654
▁flock	-9655
▁hasan	-9656
▁huffy	-9657
▁incom	-9658
▁infer	-9659
▁japan	-9660
▁jumps	-9661
▁multi	-9662
▁ranch	-9663
▁razor	-9664
▁restr	-9665
▁scalp	-9666
▁simpl	-9667
▁smugg	-9668
▁tempt	-9669
▁therm	-9670
▁veter	-9671
▁yield	-9672
quilles	-9673
rengard	-9674
ustomed	-9675
▁adults	-9676
▁afghan	-9677
▁angles	-9678
▁approx	-9679
▁caring	-9680
▁contra	-9681
▁copies	-9682
▁denied	-9683
▁dishes	-9684
▁enrico	-9685
▁healed	-9686
▁jammed	-9687
▁layers	-9688
▁melted	-9689
▁noting	-9690
▁overly	-9691
▁reader	-9692
▁rennes	-9693
▁resign	-9694
▁rotten	-9695
▁sample	-9696
▁shades	-9697
▁sorrow	-9698
▁spiral	-9699
▁struct	-9700
▁sunset	-9701
▁tanker	-9702
▁theirs	-9703
▁trench	-9704
▁uncont	-9705
▁urgent	-9706
▁warmed	-9707
▁weakly	-9708
▁abandon	-9709
▁antenna	-9710
▁bruised	-9711
▁convent	-9712
▁culture	-9713
▁disconn	-9714
▁disinte	-9715
▁eduardo	-9716
▁feature	-9717
▁gadgets	-9718
▁heavens	-9719
▁invaded	-9720
▁locking	-9721
▁network	-9722
▁obscure	-9723
▁pierced	-9724
▁plateau	-9725
▁precaut	-9726
▁sniffed	-9727
▁tapping	-9728
▁threats	-9729
▁thumper	-9730
▁awaiting	-9731
▁bouncing	-9732
▁coloured	-9733
▁composed	-9734
▁crawling	-9735
▁dramatic	-9736
▁engineer	-9737
▁escaping	-9738
▁explains	-9739
▁hopeless	-9740
▁industry	-9741
▁inspired	-9742
▁inviting	-9743
▁isolated	-9744
▁jamieson	-9745
▁missions	-9746
▁mistaken	-9747
▁operated	-9748
▁pavement	-9749
▁sandwich	-9750
▁signaled	-9751
▁snapping	-9752
▁someones	-9753
▁throttle	-9754
▁tropical	-9755
▁wrinkled	-9756
▁caribbean	-9757
▁celebrate	-9758
▁classroom	-9759
▁corrected	-9760
▁corridors	-9761
▁evolution	-9762
▁forbidden	-9763
▁formation	-9764
▁fragrance	-9765
▁guarantee	-9766
▁kidnapped	-9767
▁paintings	-9768
▁perceived	-9769
▁principle	-9770
▁regularly	-9771
▁technical	-9772
▁convenient	-9773
▁heerengard	-9774
▁mechanical	-9775
▁philosophy	-9776
▁properties	-9777
▁celebration	-9778
▁experiences	-9779
▁interjected	-9780
▁represented	-9781
▁extravaganza	-9782
▁intersection	-9783
bat	-9784
gas	-9785
nos	-9786
uer	-9787
urr	-9788
▁32	-9789
▁iz	-9790
bery	-9791
bing	-9792
cles	-9793
foot	-9794
idhe	-9795
lect	-9796
lets	-9797
lord	-9798
oles	-9799
road	-9800
▁aug	-9801
▁dat	-9802
▁eth	-9803
▁ink	-9804
▁lag	-9805
▁mes	-9806
▁owl	-9807
▁qon	-9808
▁vel	-9809
ateau	-9810
aying	-9811
getic	-9812
going	-9813
▁acid	-9814
▁bund	-9815
▁cape	-9816
▁dash	-9817
▁dign	-9818
▁frey	-9819
▁hass	-9820
▁ming	-9821
▁moan	-9822
▁mold	-9823
▁mull	-9824
▁orde	-9825
▁pony	-9826
▁rans	-9827
▁sadd	-9828
▁sami	-9829
▁stad	-9830
▁tart	-9831
▁trim	-9832
▁twig	-9833
▁vein	-9834
▁wary	-9835
igning	-9836
rossed	-9837
uously	-9838
▁attic	-9839
▁bacon	-9840
▁compe	-9841
▁crops	-9842
▁crows	-9843
▁fetch	-9844
▁hazel	-9845
▁hilar	-9846
▁juice	-9847
▁lamps	-9848
▁levee	-9849
▁lover	-9850
▁marys	-9851
▁moral	-9852
▁ranks	-9853
▁shine	-9854
▁suppl	-9855
▁templ	-9856
jection	-9857
▁asylum	-9858
▁autumn	-9859
▁brains	-9860
▁breach	-9861
▁cattle	-9862
▁claims	-9863
▁conner	-9864
▁conser	-9865
▁dipped	-9866
▁exists	-9867
▁exotic	-9868
▁freeze	-9869
▁garish	-9870
▁helmet	-9871
▁hooked	-9872
▁igneer	-9873
▁insign	-9874
▁integr	-9875
▁modest	-9876
▁phones	-9877
▁player	-9878
▁polite	-9879
▁prints	-9880
▁relent	-9881
▁ridden	-9882
▁solemn	-9883
▁suidhe	-9884
▁summit	-9885
▁tricks	-9886
▁viewed	-9887
carriage	-9888
▁begging	-9889
▁camping	-9890
▁chateau	-9891
▁conceal	-9892
▁consist	-9893
▁console	-9894
▁coyotes	-9895
▁dislike	-9896
▁enlight	-9897
▁markets	-9898
▁mocking	-9899
▁packing	-9900
▁reminds	-9901
▁ripping	-9902
▁sarawak	-9903
▁sleeves	-9904
▁smacked	-9905
▁tattoos	-9906
▁tracked	-9907
▁tremend	-9908
▁tumbled	-9909
▁vicious	-9910
▁winning	-9911
▁ascended	-9912
▁awakened	-9913
▁boulders	-9914
▁corporal	-9915
▁dangling	-9916
▁envision	-9917
▁existing	-9918
▁farewell	-9919
▁freezing	-9920
▁juncture	-9921
▁knuckles	-9922
▁meantime	-9923
▁minister	-9924
▁misunder	-9925
▁nineteen	-9926
▁products	-9927
▁skeleton	-9928
▁sprinted	-9929
▁stripped	-9930
▁stunning	-9931
▁tortured	-9932
▁hurriedly	-9933
▁jerusalem	-9934
▁materials	-9935
▁releasing	-9936
▁respected	-9937
▁squeezing	-9938
▁surviving	-9939
▁collecting	-9940
▁deliberate	-9941
▁innocently	-9942
▁remarkable	-9943
▁transition	-9944
▁compartment	-9945
▁independent	-9946
▁photographs	-9947
▁outstretched	-9948
▁undercarriage	-9949
da	-9950
ii	-9951
tr	-9952
mac	-9953
ole	-9954
▁mi	-9955
alet	-9956
anks	-9957
gage	-9958
hers	-9959
ieth	-9960
inth	-9961
lequ	-9962
onso	-9963
▁alb	-9964
▁alp	-9965
▁dor	-9966
▁ego	-9967
▁fbi	-9968
▁gal	-9969
▁goo	-9970
▁los	-9971
▁riv	-9972
▁tex	-9973
chief	-9974
inals	-9975
pered	-9976
rants	-9977
▁ador	-9978
▁fawl	-9979
▁jean	-9980
▁kidn	-9981
▁lava	-9982
▁lids	-9983
▁mare	-9984
▁mout	-9985
▁muss	-9986
▁myst	-9987
▁obed	-9988
▁rejo	-9989
▁tons	-9990
▁void	-9991
▁wits	-9992
▁yoli	-9993
acking	-9994
aulted	-9995
bedded	-9996
bridge	-9997
itably	-9998
lequah	-9999
▁alist	-10000
▁astor	-10001
▁bombs	-10002
▁cavan	-10003
▁chunk	-10004
▁cigar	-10005
▁crude	-10006
▁dealt	-10007
▁dimly	-10008
▁drama	-10009
▁eagle	-10010
▁embro	-10011
▁ewark	-10012
▁files	-10013
▁flail	-10014
▁funds	-10015
▁hairs	-10016
▁hooks	-10017
▁humid	-10018
▁jimmy	-10019
▁jodie	-10020
▁meals	-10021
▁mouse	-10022
▁packs	-10023
▁prism	-10024
▁qonch	-10025
▁races	-10026
▁sacks	-10027
▁sgurr	-10028
▁snowy	-10029
▁thump	-10030
▁traps	-10031
▁typed	-10032
angular	-10033
itching	-10034
▁absurd	-10035
▁admire	-10036
▁anonym	-10037
▁casket	-10038
▁dialed	-10039
▁draped	-10040
▁endeav	-10041
▁filthy	-10042
▁finest	-10043
▁legged	-10044
▁lively	-10045
▁longed	-10046
▁metaph	-10047
▁misery	-10048
▁petrov	-10049
▁phrase	-10050
▁ponder	-10051
▁salima	-10052
▁script	-10053
▁sleepy	-10054
▁slopes	-10055
▁stride	-10056
▁stroke	-10057
▁surged	-10058
▁swings	-10059
▁tilted	-10060
▁towers	-10061
▁unbear	-10062
▁visual	-10063
▁ceremon	-10064
▁chemist	-10065
▁clapped	-10066
▁demonst	-10067
▁desired	-10068
▁devices	-10069
▁heristo	-10070
▁hideous	-10071
▁insight	-10072
▁jackets	-10073
▁matches	-10074
▁prayers	-10075
▁propose	-10076
▁propped	-10077
▁renewed	-10078
▁resolve	-10079
▁scraped	-10080
▁scratch	-10081
▁sinking	-10082
▁stamped	-10083
▁strikes	-10084
▁sustain	-10085
▁venture	-10086
▁annoying	-10087
▁believes	-10088
▁capacity	-10089
▁charging	-10090
▁claiming	-10091
▁embraced	-10092
▁emphasis	-10093
▁eternity	-10094
▁explored	-10095
▁grumbled	-10096
▁homeland	-10097
▁mattered	-10098
▁momentum	-10099
▁slamming	-10100
▁appointed	-10101
▁bequilles	-10102
▁confessed	-10103
▁decorated	-10104
▁evidently	-10105
▁fragments	-10106
▁household	-10107
▁miserable	-10108
▁paperwork	-10109
▁promising	-10110
▁reluctant	-10111
▁tahlequah	-10112
▁belongings	-10113
▁challenged	-10114
▁conviction	-10115
▁descending	-10116
▁discipline	-10117
▁forgetting	-10118
▁headlights	-10119
▁kilometers	-10120
▁proclaimed	-10121
▁prosecutor	-10122
▁sheepishly	-10123
▁silhouette	-10124
▁sunglasses	-10125
▁suspicions	-10126
▁sweetheart	-10127
▁complaining	-10128
▁effectively	-10129
▁heerengardt	-10130
▁instruments	-10131
▁involvement	-10132
▁permanently	-10133
▁confirmation	-10134
▁extraordinary	-10135
cha	-10136
gra	-10137
lah	-10138
ola	-10139
pid	-10140
zas	-10141
▁23	-10142
▁ga	-10143
▁iv	-10144
angs	-10145
anse	-10146
arez	-10147
erto	-10148
imet	-10149
otch	-10150
ucle	-10151
▁bug	-10152
▁eve	-10153
▁hem	-10154
▁nut	-10155
▁tel	-10156
▁unl	-10157
▁upd	-10158
anges	-10159
athed	-10160
hamed	-10161
inese	-10162
iques	-10163
isure	-10164
onent	-10165
verse	-10166
works	-10167
▁chil	-10168
▁gram	-10169
▁hilt	-10170
▁intr	-10171
▁knob	-10172
▁mand	-10173
▁plow	-10174
▁pont	-10175
▁quer	-10176
▁ruth	-10177
▁slap	-10178
▁snar	-10179
▁spur	-10180
▁unim	-10181
▁wipe	-10182
loaded	-10183
rolled	-10184
▁accum	-10185
▁bloss	-10186
▁bonus	-10187
▁clerk	-10188
▁conve	-10189
▁costs	-10190
▁curls	-10191
▁dazed	-10192
▁disem	-10193
▁dodge	-10194
▁dwell	-10195
▁elves	-10196
▁gleam	-10197
▁glove	-10198
▁goose	-10199
▁gully	-10200
▁latin	-10201
▁misty	-10202
▁muted	-10203
▁nickn	-10204
▁noble	-10205
▁nucle	-10206
▁prank	-10207
▁puffy	-10208
▁scrut	-10209
▁stake	-10210
▁tests	-10211
▁tubes	-10212
▁albert	-10213
▁appeal	-10214
▁append	-10215
▁armies	-10216
▁blamed	-10217
▁callie	-10218
▁crumbs	-10219
▁emerge	-10220
▁evoric	-10221
▁grandd	-10222
▁hinges	-10223
▁invite	-10224
▁jagged	-10225
▁jessie	-10226
▁lining	-10227
▁locate	-10228
▁masses	-10229
▁morgue	-10230
▁ordeal	-10231
▁orient	-10232
▁roamed	-10233
▁sacred	-10234
▁storms	-10235
▁twists	-10236
etheless	-10237
inations	-10238
▁amusing	-10239
▁artists	-10240
▁barrier	-10241
▁blasted	-10242
▁blessed	-10243
▁breasts	-10244
▁bruises	-10245
▁burgeys	-10246
▁chinese	-10247
▁cookies	-10248
▁elected	-10249
▁expanse	-10250
▁fighter	-10251
▁fragile	-10252
▁frankie	-10253
▁gilbert	-10254
▁grandpa	-10255
▁hearted	-10256
▁hugging	-10257
▁iredale	-10258
▁leisure	-10259
▁logging	-10260
▁methods	-10261
▁mouthed	-10262
▁needing	-10263
▁neutral	-10264
▁replies	-10265
▁russell	-10266
▁sarcasm	-10267
▁session	-10268
▁slavery	-10269
▁strings	-10270
▁unhappy	-10271
▁website	-10272
▁achieved	-10273
▁artifact	-10274
▁billions	-10275
▁commands	-10276
▁contacts	-10277
▁desolate	-10278
▁drifting	-10279
▁football	-10280
▁grasping	-10281
▁hesitate	-10282
▁homeless	-10283
▁horrific	-10284
▁igneeria	-10285
▁priority	-10286
▁promises	-10287
▁qonchita	-10288
▁quantity	-10289
▁rational	-10290
▁reporter	-10291
▁squadron	-10292
▁starving	-10293
▁steaming	-10294
▁twitched	-10295
▁whistled	-10296
▁believing	-10297
▁broadcast	-10298
▁deception	-10299
▁deposited	-10300
▁elsewhere	-10301
▁hilarious	-10302
▁hospitals	-10303
▁playfully	-10304
▁reminding	-10305
▁secretary	-10306
▁travelers	-10307
▁unfolding	-10308
▁dedication	-10309
▁electrical	-10310
▁impatience	-10311
▁overlooked	-10312
▁production	-10313
▁protruding	-10314
▁vegetables	-10315
▁confidently	-10316
▁differently	-10317
▁nonetheless	-10318
▁politicians	-10319
▁administration	-10320
any	-10321
cia	-10322
fly	-10323
mpt	-10324
ode	-10325
rik	-10326
▁au	-10327
▁gn	-10328
▁ki	-10329
assy	-10330
beat	-10331
door	-10332
fits	-10333
hawk	-10334
hile	-10335
orse	-10336
quet	-10337
vial	-10338
▁bid	-10339
▁fax	-10340
▁lum	-10341
▁pau	-10342
▁sob	-10343
onald	-10344
ooled	-10345
ucted	-10346
▁baff	-10347
▁beef	-10348
▁bino	-10349
▁bond	-10350
▁carn	-10351
▁cass	-10352
▁cove	-10353
▁darn	-10354
▁goss	-10355
▁hind	-10356
▁nove	-10357
▁oars	-10358
▁pour	-10359
▁rude	-10360
▁yore	-10361
antial	-10362
culars	-10363
umbles	-10364
unches	-10365
▁brist	-10366
▁clunk	-10367
▁crypt	-10368
▁dates	-10369
▁decre	-10370
▁error	-10371
▁helps	-10372
▁infin	-10373
▁jarez	-10374
▁legit	-10375
▁longh	-10376
▁luxur	-10377
▁maneu	-10378
▁minus	-10379
▁mommy	-10380
▁nause	-10381
▁oklah	-10382
▁pains	-10383
▁plast	-10384
▁poles	-10385
▁purse	-10386
▁repub	-10387
▁saint	-10388
▁sizes	-10389
▁slice	-10390
▁snack	-10391
▁stays	-10392
▁sworn	-10393
▁tones	-10394
▁torso	-10395
▁vigor	-10396
ivalent	-10397
▁agency	-10398
▁amelia	-10399
▁awhile	-10400
▁beasts	-10401
▁behave	-10402
▁cabins	-10403
▁coward	-10404
▁daught	-10405
▁folder	-10406
▁gladly	-10407
▁handwr	-10408
▁heroes	-10409
▁insult	-10410
▁kindly	-10411
▁lunged	-10412
▁mannys	-10413
▁nearer	-10414
▁nudged	-10415
▁peeked	-10416
▁picnic	-10417
▁posted	-10418
▁praise	-10419
▁precip	-10420
▁puerto	-10421
▁purely	-10422
▁recess	-10423
▁ritual	-10424
▁shiver	-10425
▁steven	-10426
▁strips	-10427
▁syring	-10428
▁taxied	-10429
▁throws	-10430
▁unsett	-10431
▁vacant	-10432
▁wedged	-10433
▁ashamed	-10434
▁bedside	-10435
▁benches	-10436
▁bobbing	-10437
▁candles	-10438
▁classic	-10439
▁clouded	-10440
▁comprom	-10441
▁courses	-10442
▁crucial	-10443
▁divided	-10444
▁dripped	-10445
▁experts	-10446
▁goggles	-10447
▁hurting	-10448
▁loosely	-10449
▁patches	-10450
▁payment	-10451
▁rations	-10452
▁rocking	-10453
▁strands	-10454
▁strides	-10455
▁stripes	-10456
▁winslow	-10457
▁wrought	-10458
▁depended	-10459
▁diameter	-10460
▁dressing	-10461
▁figuring	-10462
▁frequent	-10463
▁handling	-10464
▁headache	-10465
▁hurrying	-10466
▁magician	-10467
▁marveled	-10468
▁passages	-10469
▁requires	-10470
▁revolver	-10471
▁sheriffs	-10472
▁theories	-10473
▁withdraw	-10474
▁composure	-10475
▁daughters	-10476
▁defensive	-10477
▁discerned	-10478
▁fantastic	-10479
▁fluttered	-10480
▁fredricks	-10481
▁gesturing	-10482
▁institute	-10483
▁involving	-10484
▁magazines	-10485
▁precision	-10486
▁surrender	-10487
▁uncovered	-10488
▁unnatural	-10489
▁whistling	-10490
▁accustomed	-10491
▁binoculars	-10492
▁camouflage	-10493
▁commanders	-10494
▁dispatched	-10495
▁explosives	-10496
▁glistening	-10497
▁practicing	-10498
▁protective	-10499
▁provisions	-10500
▁arrangement	-10501
▁outcropping	-10502
▁recognition	-10503
▁calculations	-10504
▁suspiciously	-10505
oa	-10506
oes	-10507
roc	-10508
voc	-10509
▁26	-10510
▁50	-10511
ango	-10512
aton	-10513
bted	-10514
down	-10515
iors	-10516
itan	-10517
just	-10518
made	-10519
nate	-10520
quis	-10521
quit	-10522
rial	-10523
zzle	-10524
▁bee	-10525
▁cia	-10526
▁cla	-10527
▁mol	-10528
▁voc	-10529
▁vom	-10530
▁wri	-10531
acies	-10532
athom	-10533
ettah	-10534
grown	-10535
heast	-10536
idate	-10537
rived	-10538
▁2012	-10539
▁aviv	-10540
▁barr	-10541
▁boil	-10542
▁cany	-10543
▁clad	-10544
▁crev	-10545
▁cups	-10546
▁dele	-10547
▁dile	-10548
▁duke	-10549
▁dune	-10550
▁goof	-10551
▁grat	-10552
▁gurn	-10553
▁http	-10554
▁huts	-10555
▁kain	-10556
▁labs	-10557
▁leon	-10558
▁menu	-10559
▁moll	-10560
▁monk	-10561
▁obst	-10562
▁sobs	-10563
▁stew	-10564
▁ties	-10565
▁whee	-10566
abbing	-10567
forced	-10568
inaloa	-10569
▁amate	-10570
▁attor	-10571
▁beros	-10572
▁canad	-10573
▁cares	-10574
▁crisp	-10575
▁fatig	-10576
▁flows	-10577
▁folds	-10578
▁greek	-10579
▁hedwa	-10580
▁kayla	-10581
▁loads	-10582
▁moons	-10583
▁ornam	-10584
▁paulo	-10585
▁pleas	-10586
▁posts	-10587
▁puppy	-10588
▁resur	-10589
▁uncom	-10590
▁uncon	-10591
▁whiff	-10592
▁wield	-10593
▁yanke	-10594
▁affirm	-10595
▁aimees	-10596
▁aliens	-10597
▁assemb	-10598
▁banana	-10599
▁bolted	-10600
▁bolton	-10601
▁bricks	-10602
▁bumped	-10603
▁buzzed	-10604
▁chased	-10605
▁cocked	-10606
▁cooked	-10607
▁debate	-10608
▁demise	-10609
▁discre	-10610
▁fettah	-10611
▁fixing	-10612
▁fuckin	-10613
▁gaping	-10614
▁gerald	-10615
▁goddam	-10616
▁gulped	-10617
▁inscri	-10618
▁issued	-10619
▁layout	-10620
▁lesser	-10621
▁marias	-10622
▁pauses	-10623
▁permit	-10624
▁perpet	-10625
▁portug	-10626
▁seized	-10627
▁spells	-10628
▁splend	-10629
▁subway	-10630
▁swayed	-10631
▁sympat	-10632
▁uncles	-10633
▁whined	-10634
▁altered	-10635
▁amounts	-10636
▁anytime	-10637
▁authors	-10638
▁billion	-10639
▁blazing	-10640
▁boiling	-10641
▁bounded	-10642
▁bullies	-10643
▁compens	-10644
▁constit	-10645
▁depends	-10646
▁devised	-10647
▁evolved	-10648
▁exhilar	-10649
▁gaining	-10650
▁harvest	-10651
▁hendrik	-10652
▁hopeful	-10653
▁hostage	-10654
▁hunched	-10655
▁motives	-10656
▁orderly	-10657
▁panting	-10658
▁persist	-10659
▁salvage	-10660
▁sinaloa	-10661
▁sloping	-10662
▁stadler	-10663
▁sucking	-10664
▁surreal	-10665
▁swaying	-10666
▁templar	-10667
▁tempted	-10668
▁thirsty	-10669
▁touches	-10670
▁towered	-10671
▁accuracy	-10672
▁alistair	-10673
▁blinking	-10674
▁clinging	-10675
▁crushing	-10676
▁disguise	-10677
▁disposal	-10678
▁escorted	-10679
▁fledging	-10680
▁geronimo	-10681
▁gorgeous	-10682
▁interpre	-10683
▁mattress	-10684
▁obtained	-10685
▁oklahoma	-10686
▁pakistan	-10687
▁partners	-10688
▁referred	-10689
▁republic	-10690
▁sequence	-10691
▁spilling	-10692
▁squinted	-10693
▁surveyed	-10694
▁youngest	-10695
▁expressed	-10696
▁governors	-10697
▁greenland	-10698
▁horseback	-10699
▁innocence	-10700
▁muttering	-10701
▁neighbour	-10702
▁oblivious	-10703
▁referring	-10704
▁signature	-10705
▁transform	-10706
▁acquainted	-10707
▁dismounted	-10708
▁gracefully	-10709
▁inevitably	-10710
▁microphone	-10711
▁motorcycle	-10712
▁spectators	-10713
▁terrorists	-10714
▁tremendous	-10715
▁comfortably	-10716
▁necessarily	-10717
▁replacement	-10718
▁specialists	-10719
▁temporarily	-10720
▁uncertainty	-10721
▁accidentally	-10722
▁circumstance	-10723
▁unmistakable	-10724
▁disappearance	-10725
▁incredulously	-10726
▁uncomfortably	-10727
sc	-10728
ta	-10729
box	-10730
gam	-10731
gic	-10732
hab	-10733
iti	-10734
iya	-10735
not	-10736
van	-10737
▁28	-10738
▁rv	-10739
arer	-10740
fton	-10741
hart	-10742
iage	-10743
onas	-10744
oooo	-10745
phed	-10746
ruct	-10747
uded	-10748
udes	-10749
▁asc	-10750
▁coc	-10751
▁dip	-10752
▁hip	-10753
▁hul	-10754
▁obe	-10755
▁rou	-10756
▁tee	-10757
▁via	-10758
▁wad	-10759
▁yup	-10760
ander	-10761
arter	-10762
river	-10763
▁cogn	-10764
▁erga	-10765
▁eric	-10766
▁flex	-10767
▁ford	-10768
▁fuzz	-10769
▁gord	-10770
▁hats	-10771
▁hoof	-10772
▁hose	-10773
▁info	-10774
▁khak	-10775
▁krug	-10776
▁lill	-10777
▁musk	-10778
▁myri	-10779
▁naut	-10780
▁peek	-10781
▁pend	-10782
▁ribb	-10783
▁stem	-10784
▁surm	-10785
▁trem	-10786
▁unsp	-10787
▁vial	-10788
▁voll	-10789
▁zoom	-10790
abouts	-10791
iggled	-10792
▁abuse	-10793
▁ashes	-10794
▁blaze	-10795
▁blush	-10796
▁champ	-10797
▁elder	-10798
▁flush	-10799
▁glued	-10800
▁hobes	-10801
▁imple	-10802
▁pupil	-10803
▁schol	-10804
▁secre	-10805
▁stony	-10806
▁stray	-10807
▁thras	-10808
▁weeds	-10809
▁wires	-10810
▁wives	-10811
▁woven	-10812
▁wrath	-10813
▁avalon	-10814
▁closes	-10815
▁coffin	-10816
▁copper	-10817
▁creepy	-10818
▁crimes	-10819
▁fights	-10820
▁gossip	-10821
▁hotels	-10822
▁inched	-10823
▁inward	-10824
▁jewels	-10825
▁lashes	-10826
▁latter	-10827
▁listed	-10828
▁perple	-10829
▁planes	-10830
▁ranger	-10831
▁ransom	-10832
▁romans	-10833
▁rowden	-10834
▁rusted	-10835
▁sefton	-10836
▁sheath	-10837
▁strain	-10838
▁strewn	-10839
▁submer	-10840
▁thatll	-10841
▁topped	-10842
▁warily	-10843
▁warmly	-10844
▁wrench	-10845
▁admired	-10846
▁aspects	-10847
▁blurred	-10848
▁blushed	-10849
▁carrier	-10850
▁committ	-10851
▁creaked	-10852
▁demands	-10853
▁devoted	-10854
▁edwards	-10855
▁elderly	-10856
▁flapped	-10857
▁folding	-10858
▁foliage	-10859
▁freshly	-10860
▁handler	-10861
▁heavier	-10862
▁nuclear	-10863
▁queried	-10864
▁samples	-10865
▁shepher	-10866
▁skilled	-10867
▁skinned	-10868
▁slender	-10869
▁smarter	-10870
▁valleys	-10871
▁visibly	-10872
▁william	-10873
▁assembly	-10874
▁atlantic	-10875
▁balanced	-10876
▁blessing	-10877
▁courtesy	-10878
▁defeated	-10879
▁demeanor	-10880
▁discreet	-10881
▁dwelling	-10882
▁expanded	-10883
▁holidays	-10884
▁improved	-10885
▁inexplic	-10886
▁lowering	-10887
▁mornings	-10888
▁mumbling	-10889
▁occupant	-10890
▁paddling	-10891
▁presumed	-10892
▁projects	-10893
▁refusing	-10894
▁retained	-10895
▁sentries	-10896
▁smoothed	-10897
▁sneaking	-10898
▁softened	-10899
▁stirring	-10900
▁streaked	-10901
▁streamed	-10902
▁sweating	-10903
▁terminal	-10904
▁weakened	-10905
ifications	-10906
▁accompany	-10907
▁attending	-10908
▁betraying	-10909
▁criminals	-10910
▁daegmunds	-10911
▁delicious	-10912
▁destroyer	-10913
▁longhouse	-10914
▁prevented	-10915
▁producing	-10916
▁recommend	-10917
▁stretcher	-10918
▁underling	-10919
▁volunteer	-10920
▁containers	-10921
▁enterprise	-10922
▁reasonably	-10923
▁techniques	-10924
▁terrifying	-10925
▁unbearable	-10926
▁volunteers	-10927
▁controlling	-10928
▁frightening	-10929
▁governments	-10930
▁housekeeper	-10931
▁operational	-10932
▁proceedings	-10933
▁reenactment	-10934
▁unexplained	-10935
▁involuntarily	-10936
▁investigations	-10937
wy	-10938
azz	-10939
ede	-10940
jud	-10941
▁dy	-10942
anas	-10943
ener	-10944
inum	-10945
isms	-10946
neys	-10947
seys	-10948
▁130	-10949
▁bef	-10950
▁mah	-10951
▁sut	-10952
▁tul	-10953
▁wax	-10954
▁zen	-10955
anche	-10956
iforn	-10957
ouses	-10958
proof	-10959
ulent	-10960
▁bait	-10961
▁bamb	-10962
▁barg	-10963
▁dent	-10964
▁dive	-10965
▁dyou	-10966
▁fanc	-10967
▁fidd	-10968
▁garr	-10969
▁gour	-10970
▁guid	-10971
▁haze	-10972
▁herr	-10973
▁hiss	-10974
▁maam	-10975
▁octo	-10976
▁peel	-10977
▁plum	-10978
▁poll	-10979
▁retr	-10980
▁sier	-10981
▁turb	-10982
▁unch	-10983
▁vote	-10984
asting	-10985
encies	-10986
estyle	-10987
icuous	-10988
ooping	-10989
umbers	-10990
unning	-10991
usible	-10992
▁apolo	-10993
▁arche	-10994
▁barge	-10995
▁brace	-10996
▁crush	-10997
▁derby	-10998
▁engen	-10999
▁exhib	-11000
▁faery	-11001
▁feder	-11002
▁freak	-11003
▁fried	-11004
▁haven	-11005
▁herbs	-11006
▁hints	-11007
▁horns	-11008
▁index	-11009
▁jones	-11010
▁keyed	-11011
▁laden	-11012
▁peaks	-11013
▁petty	-11014
▁roger	-11015
▁seals	-11016
▁sixth	-11017
▁slick	-11018
▁sober	-11019
▁spied	-11020
▁swiss	-11021
▁texas	-11022
borough	-11023
ifornia	-11024
located	-11025
ounding	-11026
▁agrees	-11027
▁attrib	-11028
▁barren	-11029
▁breena	-11030
▁burial	-11031
▁canyon	-11032
▁consol	-11033
▁devoid	-11034
▁drives	-11035
▁endure	-11036
▁exting	-11037
▁formid	-11038
▁galley	-11039
▁jabbed	-11040
▁linked	-11041
▁mentor	-11042
▁myriad	-11043
▁nicely	-11044
▁openly	-11045
▁parano	-11046
▁peeled	-11047
▁peters	-11048
▁plaque	-11049
▁poking	-11050
▁predic	-11051
▁queens	-11052
▁render	-11053
▁salute	-11054
▁sector	-11055
▁sexual	-11056
▁shaken	-11057
▁storch	-11058
▁subter	-11059
▁tissue	-11060
▁tranqu	-11061
▁trials	-11062
▁antique	-11063
▁apology	-11064
▁awfully	-11065
▁boarded	-11066
▁cartels	-11067
▁chatter	-11068
▁concert	-11069
▁consume	-11070
▁cradled	-11071
▁embassy	-11072
▁fearful	-11073
▁flashes	-11074
▁fleeing	-11075
▁foxhart	-11076
▁gardens	-11077
▁happier	-11078
▁hardest	-11079
▁jewelry	-11080
▁judging	-11081
▁laundry	-11082
▁mischie	-11083
▁paddled	-11084
▁plucked	-11085
▁prevail	-11086
▁quicker	-11087
▁rabbits	-11088
▁reacted	-11089
▁repairs	-11090
▁reprodu	-11091
▁rotting	-11092
▁sandwic	-11093
▁secrecy	-11094
▁squires	-11095
▁statues	-11096
▁subdued	-11097
▁syringe	-11098
▁threads	-11099
▁trickle	-11100
▁warming	-11101
▁whiskey	-11102
▁wouldve	-11103
isticated	-11104
▁analysis	-11105
▁articles	-11106
▁assuming	-11107
▁barracks	-11108
▁bastards	-11109
▁bellowed	-11110
▁careless	-11111
▁chatting	-11112
▁choosing	-11113
▁columbus	-11114
▁contrary	-11115
▁emerging	-11116
▁everyday	-11117
▁explodes	-11118
▁exterior	-11119
▁filtered	-11120
▁flapping	-11121
▁forwards	-11122
▁hardcore	-11123
▁hollered	-11124
▁husbands	-11125
▁ignorant	-11126
▁lingered	-11127
▁meetings	-11128
▁offended	-11129
▁reckoned	-11130
▁retrieve	-11131
▁securely	-11132
▁sickness	-11133
▁speakers	-11134
▁sporting	-11135
▁stockade	-11136
▁strictly	-11137
▁upcoming	-11138
▁associate	-11139
▁attackers	-11140
▁depressed	-11141
▁disintegr	-11142
▁dissolved	-11143
▁eliminate	-11144
▁inherited	-11145
▁intensely	-11146
▁intervals	-11147
▁irritated	-11148
▁occupants	-11149
▁overgrown	-11150
▁overheard	-11151
▁plastered	-11152
▁predicted	-11153
▁propelled	-11154
▁provision	-11155
▁qualified	-11156
▁reassured	-11157
▁scheduled	-11158
▁shoreline	-11159
▁sincerely	-11160
▁throbbing	-11161
▁veritable	-11162
▁admiration	-11163
▁apologized	-11164
▁california	-11165
▁commercial	-11166
▁diminished	-11167
▁performing	-11168
▁afghanistan	-11169
▁butterflies	-11170
▁tentatively	-11171
▁transformed	-11172
▁enthusiastic	-11173
▁unexpectedly	-11174
js	-11175
iah	-11176
umi	-11177
vre	-11178
▁eb	-11179
▁ou	-11180
▁pm	-11181
chal	-11182
gate	-11183
iana	-11184
ixed	-11185
long	-11186
once	-11187
rand	-11188
remy	-11189
rets	-11190
wart	-11191
▁ade	-11192
▁ars	-11193
▁fow	-11194
▁nam	-11195
▁neo	-11196
▁ost	-11197
▁sul	-11198
▁tad	-11199
about	-11200
ardon	-11201
burst	-11202
cases	-11203
gling	-11204
ipper	-11205
onies	-11206
quate	-11207
▁ache	-11208
▁beac	-11209
▁casc	-11210
▁cens	-11211
▁chal	-11212
▁chet	-11213
▁coal	-11214
▁dais	-11215
▁dean	-11216
▁debt	-11217
▁fade	-11218
▁geez	-11219
▁goin	-11220
▁hail	-11221
▁heap	-11222
▁hort	-11223
▁lull	-11224
▁mule	-11225
▁prow	-11226
▁prox	-11227
▁stub	-11228
▁sufi	-11229
▁sunr	-11230
▁surg	-11231
▁toad	-11232
▁twil	-11233
▁veil	-11234
▁vend	-11235
▁weep	-11236
irable	-11237
mented	-11238
ouched	-11239
ourage	-11240
udging	-11241
worthy	-11242
▁alleg	-11243
▁await	-11244
▁china	-11245
▁coded	-11246
▁cycle	-11247
▁dilem	-11248
▁dwind	-11249
▁elses	-11250
▁embal	-11251
▁energ	-11252
▁fills	-11253
▁flaps	-11254
▁flips	-11255
▁fract	-11256
▁goals	-11257
▁grind	-11258
▁handc	-11259
▁irony	-11260
▁izumi	-11261
▁khaki	-11262
▁merry	-11263
▁minim	-11264
▁nigel	-11265
▁parap	-11266
▁polar	-11267
▁prost	-11268
▁rains	-11269
▁rooft	-11270
▁sleek	-11271
▁spite	-11272
▁thief	-11273
▁urged	-11274
icating	-11275
itating	-11276
perated	-11277
theless	-11278
▁allies	-11279
▁amidst	-11280
▁arabic	-11281
▁banged	-11282
▁battal	-11283
▁bursts	-11284
▁chewed	-11285
▁cleery	-11286
▁disple	-11287
▁duffle	-11288
▁foster	-11289
▁fruits	-11290
▁furrow	-11291
▁gurney	-11292
▁humili	-11293
▁jeremy	-11294
▁librar	-11295
▁lovers	-11296
▁majest	-11297
▁masked	-11298
▁mercen	-11299
▁molten	-11300
▁murmur	-11301
▁nerzas	-11302
▁novels	-11303
▁paraly	-11304
▁plains	-11305
▁raging	-11306
▁recoll	-11307
▁robots	-11308
▁sandal	-11309
▁singer	-11310
▁solely	-11311
▁sports	-11312
▁stormy	-11313
▁sweaty	-11314
▁tangle	-11315
▁tapest	-11316
▁titles	-11317
▁warmer	-11318
▁alfonso	-11319
▁backing	-11320
▁barking	-11321
▁beaming	-11322
▁bicycle	-11323
▁bubbles	-11324
▁buzzing	-11325
▁cooling	-11326
▁decline	-11327
▁delayed	-11328
▁eyelids	-11329
▁glimmer	-11330
▁hostile	-11331
▁longing	-11332
▁lurking	-11333
▁marking	-11334
▁maximum	-11335
▁melting	-11336
▁october	-11337
▁perfume	-11338
▁pillows	-11339
▁plopped	-11340
▁relayed	-11341
▁rotated	-11342
▁scowled	-11343
▁silvery	-11344
▁sipping	-11345
▁slashed	-11346
▁slowing	-11347
▁smartly	-11348
▁sobbing	-11349
▁sources	-11350
▁starter	-11351
▁stroked	-11352
▁talents	-11353
▁twinkle	-11354
▁vantage	-11355
▁academic	-11356
▁bearings	-11357
▁betrayal	-11358
▁bitterly	-11359
▁certific	-11360
▁cheerful	-11361
▁cheering	-11362
▁chilango	-11363
▁creative	-11364
▁disagree	-11365
▁distrust	-11366
▁faltered	-11367
▁imprison	-11368
▁interrog	-11369
▁kindness	-11370
▁littered	-11371
▁merchant	-11372
▁opposing	-11373
▁pleading	-11374
▁radiated	-11375
▁register	-11376
▁reminder	-11377
▁repaired	-11378
▁resisted	-11379
▁rewarded	-11380
▁schedule	-11381
▁silenced	-11382
▁splashed	-11383
▁surfaced	-11384
▁teenager	-11385
▁twilight	-11386
▁chemistry	-11387
▁commotion	-11388
▁conducted	-11389
▁confusing	-11390
▁discarded	-11391
▁enveloped	-11392
▁expanding	-11393
▁extracted	-11394
▁flattened	-11395
▁intricate	-11396
▁isolation	-11397
▁monstrous	-11398
▁persisted	-11399
▁pouffants	-11400
▁residence	-11401
▁scratches	-11402
▁secondary	-11403
▁someplace	-11404
▁strengthe	-11405
▁struggles	-11406
▁tentative	-11407
▁willingly	-11408
▁breathless	-11409
▁delicately	-11410
▁employment	-11411
▁explosions	-11412
▁guaranteed	-11413
▁nightmares	-11414
▁perfection	-11415
▁satisfying	-11416
▁shimmering	-11417
▁appointment	-11418
▁competition	-11419
▁cooperation	-11420
▁distinctive	-11421
▁functioning	-11422
▁handwriting	-11423
▁preparation	-11424
▁contemplated	-11425
▁nevertheless	-11426
▁sufficiently	-11427
▁unbelievable	-11428
▁approximately	-11429
▁consideration	-11430
▁investigating	-11431
▁communications	-11432
▁transportation	-11433
fr	-11434
bys	-11435
gle	-11436
ira	-11437
ros	-11438
ugs	-11439
▁31	-11440
▁60	-11441
▁ib	-11442
▁kl	-11443
▁ps	-11444
ablo	-11445
gnet	-11446
hips	-11447
ifes	-11448
robe	-11449
ummy	-11450
▁120	-11451
▁apt	-11452
▁aqu	-11453
▁mim	-11454
▁nas	-11455
▁ros	-11456
▁rug	-11457
▁yer	-11458
abled	-11459
anked	-11460
dling	-11461
ilize	-11462
isive	-11463
occup	-11464
olent	-11465
overs	-11466
pling	-11467
roken	-11468
▁bats	-11469
▁bert	-11470
▁cans	-11471
▁cuba	-11472
▁cure	-11473
▁danc	-11474
▁eian	-11475
▁fren	-11476
▁gull	-11477
▁incl	-11478
▁jolt	-11479
▁lect	-11480
▁panc	-11481
▁pawn	-11482
▁poem	-11483
▁reno	-11484
▁riot	-11485
▁scut	-11486
▁skip	-11487
▁skir	-11488
▁slab	-11489
▁ster	-11490
▁thru	-11491
▁tidy	-11492
▁tonk	-11493
▁unle	-11494
▁vine	-11495
atures	-11496
ecting	-11497
ezvous	-11498
iantly	-11499
orters	-11500
ousine	-11501
retion	-11502
soever	-11503
▁accus	-11504
▁appal	-11505
▁apply	-11506
▁campa	-11507
▁categ	-11508
▁caval	-11509
▁chand	-11510
▁coral	-11511
▁crate	-11512
▁decks	-11513
▁derth	-11514
▁docks	-11515
▁donny	-11516
▁draws	-11517
▁excav	-11518
▁exert	-11519
▁gross	-11520
▁hyper	-11521
▁impul	-11522
▁infra	-11523
▁jetty	-11524
▁jokes	-11525
▁kicks	-11526
▁latch	-11527
▁leeds	-11528
▁logan	-11529
▁noram	-11530
▁optim	-11531
▁quizz	-11532
▁raged	-11533
▁rhole	-11534
▁ruled	-11535
▁sales	-11536
▁sally	-11537
▁solic	-11538
▁stunt	-11539
▁theor	-11540
▁troop	-11541
▁tying	-11542
▁views	-11543
▁vines	-11544
▁virus	-11545
▁vowed	-11546
▁widow	-11547
▁wrigg	-11548
▁yorks	-11549
reshold	-11550
▁agenda	-11551
▁cables	-11552
▁ceased	-11553
▁childs	-11554
▁condem	-11555
▁cranes	-11556
▁crater	-11557
▁cutter	-11558
▁cygnet	-11559
▁eighth	-11560
▁hostel	-11561
▁ingred	-11562
▁litter	-11563
▁locker	-11564
▁marcel	-11565
▁mature	-11566
▁mortal	-11567
▁mutual	-11568
▁ninety	-11569
▁pepper	-11570
▁prejud	-11571
▁punish	-11572
▁pupils	-11573
▁quiver	-11574
▁rigged	-11575
▁serene	-11576
▁sirens	-11577
▁slides	-11578
▁slower	-11579
▁specim	-11580
▁splash	-11581
▁sprite	-11582
▁summon	-11583
▁tavern	-11584
▁turner	-11585
▁underg	-11586
▁untied	-11587
▁valued	-11588
▁whites	-11589
itiously	-11590
▁artific	-11591
▁betroth	-11592
▁choking	-11593
▁cocaine	-11594
▁counsel	-11595
▁cousins	-11596
▁crimson	-11597
▁cushion	-11598
▁darling	-11599
▁darting	-11600
▁digital	-11601
▁disrupt	-11602
▁dresses	-11603
▁flicker	-11604
▁gangway	-11605
▁goddamn	-11606
▁gournay	-11607
▁guesses	-11608
▁implied	-11609
▁insides	-11610
▁january	-11611
▁lacking	-11612
▁loyalty	-11613
▁natures	-11614
▁nonchal	-11615
▁outrage	-11616
▁parting	-11617
▁peeking	-11618
▁pulsing	-11619
▁returns	-11620
▁satisfy	-11621
▁scalpel	-11622
▁scenery	-11623
▁singers	-11624
▁throaty	-11625
▁tongues	-11626
▁torrent	-11627
▁visions	-11628
▁weeping	-11629
▁baseball	-11630
▁biscuits	-11631
▁caressed	-11632
▁centimet	-11633
▁exposure	-11634
▁fredrick	-11635
▁inconven	-11636
▁licensed	-11637
▁miracles	-11638
▁monument	-11639
▁muscular	-11640
▁pastries	-11641
▁preserve	-11642
▁programs	-11643
▁relaxing	-11644
▁restored	-11645
▁rholealy	-11646
▁runcible	-11647
▁scraping	-11648
▁scurried	-11649
▁shouldve	-11650
▁solitary	-11651
▁summoned	-11652
▁unfolded	-11653
▁accepting	-11654
▁briefcase	-11655
▁deafening	-11656
▁directing	-11657
▁inspected	-11658
▁librarian	-11659
▁limousine	-11660
▁observing	-11661
▁pointless	-11662
▁principal	-11663
▁propeller	-11664
▁requiring	-11665
▁selection	-11666
▁specially	-11667
▁startling	-11668
▁straining	-11669
▁submerged	-11670
▁territory	-11671
▁threshold	-11672
▁treachery	-11673
▁whirlwind	-11674
▁billington	-11675
▁comparison	-11676
▁confirming	-11677
▁disgusting	-11678
▁encircling	-11679
▁equivalent	-11680
▁noticeable	-11681
▁rendezvous	-11682
▁splattered	-11683
▁ultimately	-11684
▁uncontroll	-11685
▁whatsoever	-11686
▁acknowledge	-11687
▁cataloguing	-11688
▁coordinates	-11689
▁sympathetic	-11690
▁apprehension	-11691
▁disconnected	-11692
▁embarrassing	-11693
▁significance	-11694
▁contemplating	-11695
▁sophisticated	-11696
20	-11697
fo	-11698
ahl	-11699
aud	-11700
lin	-11701
omp	-11702
sea	-11703
tes	-11704
umm	-11705
wor	-11706
zes	-11707
▁40	-11708
▁ot	-11709
atoo	-11710
dium	-11711
enas	-11712
erok	-11713
eted	-11714
ffer	-11715
iate	-11716
iour	-11717
xton	-11718
▁194	-11719
▁ane	-11720
▁bin	-11721
▁cot	-11722
▁err	-11723
▁esp	-11724
▁hik	-11725
▁pho	-11726
▁pue	-11727
▁roy	-11728
▁vet	-11729
▁zeb	-11730
front	-11731
igner	-11732
▁alph	-11733
▁atop	-11734
▁bees	-11735
▁brun	-11736
▁bure	-11737
▁cats	-11738
▁clim	-11739
▁curb	-11740
▁faro	-11741
▁fuss	-11742
▁gosh	-11743
▁gulp	-11744
▁guts	-11745
▁lame	-11746
▁lush	-11747
▁obey	-11748
▁ogre	-11749
▁owed	-11750
▁pand	-11751
▁perp	-11752
▁pert	-11753
▁pian	-11754
▁plac	-11755
▁pupp	-11756
▁quir	-11757
▁reds	-11758
▁reef	-11759
▁rely	-11760
▁soap	-11761
▁trio	-11762
▁unce	-11763
▁vari	-11764
▁whir	-11765
asters	-11766
houses	-11767
ivable	-11768
mobile	-11769
oubted	-11770
parent	-11771
▁admon	-11772
▁ancho	-11773
▁apron	-11774
▁bands	-11775
▁bites	-11776
▁bluff	-11777
▁claws	-11778
▁conqu	-11779
▁curly	-11780
▁dated	-11781
▁divor	-11782
▁enclo	-11783
▁femin	-11784
▁gaunt	-11785
▁goble	-11786
▁india	-11787
▁ketch	-11788
▁label	-11789
▁loses	-11790
▁manic	-11791
▁medal	-11792
▁pablo	-11793
▁pinch	-11794
▁punct	-11795
▁racco	-11796
▁robes	-11797
▁scand	-11798
▁scarf	-11799
▁scrub	-11800
▁sites	-11801
▁snaps	-11802
▁steer	-11803
▁terry	-11804
chester	-11805
rolling	-11806
▁bamboo	-11807
▁barred	-11808
▁blouse	-11809
▁bodily	-11810
▁braced	-11811
▁dimens	-11812
▁dismay	-11813
▁divine	-11814
▁doomed	-11815
▁expose	-11816
▁flares	-11817
▁glazed	-11818
▁greedy	-11819
▁gwaums	-11820
▁halted	-11821
▁hassad	-11822
▁infilt	-11823
▁innate	-11824
▁keeper	-11825
▁learnt	-11826
▁locals	-11827
▁martin	-11828
▁melody	-11829
▁mercia	-11830
▁messen	-11831
▁mossad	-11832
▁organs	-11833
▁ornate	-11834
▁paddle	-11835
▁parall	-11836
▁poised	-11837
▁quaint	-11838
▁ravine	-11839
▁resort	-11840
▁robins	-11841
▁russia	-11842
▁scarce	-11843
▁scaven	-11844
▁straps	-11845
▁tackle	-11846
▁tensed	-11847
▁thighs	-11848
▁tolley	-11849
▁tonkun	-11850
▁velvet	-11851
▁worksh	-11852
▁yachts	-11853
▁zenith	-11854
▁austral	-11855
▁beliefs	-11856
▁borders	-11857
▁bravery	-11858
▁buddies	-11859
▁clunker	-11860
▁couples	-11861
▁cramped	-11862
▁crosses	-11863
▁cunning	-11864
▁custody	-11865
▁cutters	-11866
▁dangers	-11867
▁defined	-11868
▁dilemma	-11869
▁earning	-11870
▁earthqu	-11871
▁endured	-11872
▁exiting	-11873
▁factory	-11874
▁familys	-11875
▁federal	-11876
▁fulfill	-11877
▁fumbled	-11878
▁glaring	-11879
▁interfe	-11880
▁legends	-11881
▁malerok	-11882
▁murders	-11883
▁paddles	-11884
▁partial	-11885
▁playful	-11886
▁remorse	-11887
▁rumbled	-11888
▁saluted	-11889
▁sandals	-11890
▁scarlet	-11891
▁scarred	-11892
▁stifled	-11893
▁strateg	-11894
▁temples	-11895
▁trading	-11896
▁uttered	-11897
▁volcano	-11898
▁appalach	-11899
▁attorney	-11900
▁campaign	-11901
▁conceded	-11902
▁cupboard	-11903
▁detached	-11904
▁dispatch	-11905
▁drilling	-11906
▁electron	-11907
▁faithful	-11908
▁frosting	-11909
▁homework	-11910
▁invasion	-11911
▁loosened	-11912
▁numbness	-11913
▁objected	-11914
▁openings	-11915
▁peripher	-11916
▁profound	-11917
▁proposal	-11918
▁secretly	-11919
▁stuffing	-11920
▁supervis	-11921
▁surgical	-11922
▁thankful	-11923
▁trusting	-11924
▁vigilant	-11925
▁weighing	-11926
▁arguments	-11927
▁betrothed	-11928
▁complaint	-11929
▁consisted	-11930
▁delighted	-11931
▁efficient	-11932
▁employees	-11933
▁exploding	-11934
▁frequency	-11935
▁initially	-11936
▁intercept	-11937
▁locations	-11938
▁persuaded	-11939
▁snickered	-11940
▁sustained	-11941
▁undoubted	-11942
▁casualties	-11943
▁comforting	-11944
▁commission	-11945
▁consultant	-11946
▁formidable	-11947
▁industrial	-11948
▁inspecting	-11949
▁missionary	-11950
▁northshire	-11951
▁penetrated	-11952
▁scrambling	-11953
▁speculated	-11954
▁structures	-11955
▁fascination	-11956
▁interpreter	-11957
▁participate	-11958
▁possessions	-11959
▁predictions	-11960
▁realization	-11961
▁specialized	-11962
▁transparent	-11963
▁conveniently	-11964
▁exasperation	-11965
▁implications	-11966
ki	-11967
pd	-11968
bec	-11969
isp	-11970
opl	-11971
osc	-11972
ouf	-11973
tly	-11974
urb	-11975
▁47	-11976
▁ku	-11977
▁ts	-11978
ails	-11979
asse	-11980
bone	-11981
enbr	-11982
fish	-11983
lymp	-11984
nose	-11985
pool	-11986
pton	-11987
rast	-11988
shot	-11989
uity	-11990
ylon	-11991
zona	-11992
▁ath	-11993
▁cob	-11994
▁cue	-11995
▁dag	-11996
▁lor	-11997
▁sly	-11998
▁vad	-11999
▁viz	-12000
anity	-12001
atajs	-12002
athan	-12003
atics	-12004
cence	-12005
imity	-12006
itter	-12007
itzer	-12008
matic	-12009
oline	-12010
olini	-12011
ollen	-12012
othes	-12013
riger	-12014
ships	-12015
store	-12016
▁ambr	-12017
▁chir	-12018
▁crab	-12019
▁flav	-12020
▁glee	-12021
▁grub	-12022
▁hamm	-12023
▁hawa	-12024
▁july	-12025
▁karl	-12026
▁mall	-12027
▁meek	-12028
▁mens	-12029
▁mush	-12030
▁nigg	-12031
▁odor	-12032
▁paco	-12033
▁pyre	-12034
▁redd	-12035
▁saus	-12036
▁silo	-12037
▁tern	-12038
▁thie	-12039
▁tuck	-12040
▁unac	-12041
▁unsc	-12042
▁unth	-12043
▁vile	-12044
▁vint	-12045
angled	-12046
atable	-12047
estine	-12048
headed	-12049
rastru	-12050
▁akmed	-12051
▁alber	-12052
▁alexs	-12053
▁batch	-12054
▁bolts	-12055
▁cemet	-12056
▁cramp	-12057
▁decay	-12058
▁dilig	-12059
▁dough	-12060
▁filed	-12061
▁gauge	-12062
▁hobby	-12063
▁hunch	-12064
▁ingen	-12065
▁lemon	-12066
▁linen	-12067
▁midst	-12068
▁mikel	-12069
▁monot	-12070
▁niles	-12071
▁olymp	-12072
▁pairs	-12073
▁piano	-12074
▁quote	-12075
▁risky	-12076
▁salad	-12077
▁sided	-12078
▁sighs	-12079
▁snugg	-12080
▁spook	-12081
▁spoon	-12082
▁stale	-12083
▁stodd	-12084
▁stung	-12085
▁swell	-12086
▁valid	-12087
▁wharf	-12088
▁whine	-12089
▁wifes	-12090
parents	-12091
umbered	-12092
▁advers	-12093
▁annual	-12094
▁august	-12095
▁barric	-12096
▁bundle	-12097
▁carter	-12098
▁cathed	-12099
▁chapel	-12100
▁cheers	-12101
▁coiled	-12102
▁cookie	-12103
▁dashed	-12104
▁domain	-12105
▁etched	-12106
▁fluffy	-12107
▁franco	-12108
▁frayed	-12109
▁glided	-12110
▁harass	-12111
▁hearth	-12112
▁housed	-12113
▁illiya	-12114
▁interm	-12115
▁loosen	-12116
▁onward	-12117
▁overfl	-12118
▁pained	-12119
▁policy	-12120
▁rattle	-12121
▁retain	-12122
▁robbed	-12123
▁roller	-12124
▁screwd	-12125
▁scroll	-12126
▁shaded	-12127
▁sharks	-12128
▁sierra	-12129
▁suites	-12130
▁topics	-12131
▁treaty	-12132
▁trepid	-12133
▁youths	-12134
ceptible	-12135
▁adorned	-12136
▁arizona	-12137
▁baffled	-12138
▁bandage	-12139
▁carries	-12140
▁citizen	-12141
▁cluster	-12142
▁couldve	-12143
▁cursing	-12144
▁derthon	-12145
▁encoura	-12146
▁excuses	-12147
▁gallery	-12148
▁lindsey	-12149
▁minimum	-12150
▁minions	-12151
▁mosquit	-12152
▁pallets	-12153
▁pillars	-12154
▁pistols	-12155
▁popping	-12156
▁prodded	-12157
▁proport	-12158
▁quieter	-12159
▁ramonas	-12160
▁relieve	-12161
▁reunion	-12162
▁seventh	-12163
▁showers	-12164
▁stables	-12165
▁starved	-12166
▁stating	-12167
▁stiffly	-12168
▁sunrise	-12169
▁swollen	-12170
▁torment	-12171
abilities	-12172
▁alarming	-12173
▁anchored	-12174
▁asserted	-12175
▁balloons	-12176
▁beckoned	-12177
▁blinding	-12178
▁chantouf	-12179
▁cockatoo	-12180
▁converse	-12181
▁crippled	-12182
▁disbelie	-12183
▁economic	-12184
▁ecstatic	-12185
▁emanated	-12186
▁evenings	-12187
▁executed	-12188
▁facility	-12189
▁frowning	-12190
▁fumbling	-12191
▁garrison	-12192
▁gigantic	-12193
▁giggling	-12194
▁growling	-12195
▁guarding	-12196
▁hardware	-12197
▁hesitant	-12198
▁horribly	-12199
▁incision	-12200
▁infected	-12201
▁instruct	-12202
▁lindenbr	-12203
▁measures	-12204
▁memorial	-12205
▁metaphor	-12206
▁monitors	-12207
▁nautical	-12208
▁outburst	-12209
▁pathetic	-12210
▁prompted	-12211
▁railroad	-12212
▁rattling	-12213
▁recorder	-12214
▁refriger	-12215
▁sailboat	-12216
▁scenario	-12217
▁sparkled	-12218
▁squirrel	-12219
▁stairway	-12220
▁stinking	-12221
▁tenderly	-12222
▁unbroken	-12223
▁vadatajs	-12224
▁apologies	-12225
▁appealing	-12226
▁battalion	-12227
▁blackened	-12228
▁committee	-12229
▁crumbling	-12230
▁democracy	-12231
▁disguised	-12232
▁earnestly	-12233
▁furnished	-12234
▁genuinely	-12235
▁incidents	-12236
▁infrastru	-12237
▁lifestyle	-12238
▁mussolini	-12239
▁philosoph	-12240
▁plausible	-12241
▁plowright	-12242
▁screeched	-12243
▁secretive	-12244
▁signaling	-12245
▁stumbling	-12246
▁thrashing	-12247
▁translate	-12248
▁anticipate	-12249
▁apartments	-12250
▁approaches	-12251
▁barbarians	-12252
▁collective	-12253
▁delivering	-12254
▁engagement	-12255
▁indication	-12256
▁irritating	-12257
▁management	-12258
▁phenomenon	-12259
▁programmed	-12260
▁respecting	-12261
▁spacesuits	-12262
▁suppressed	-12263
▁translated	-12264
▁appalachian	-12265
▁dangerously	-12266
▁exploration	-12267
▁manipulated	-12268
▁predicament	-12269
▁rectangular	-12270
▁substantial	-12271
▁transported	-12272
▁dramatically	-12273
▁entertaining	-12274
▁grandparents	-12275
▁confrontation	-12276
▁distinguished	-12277
▁exceptionally	-12278
▁granddaughter	-12279
▁organizations	-12280
▁infrastructure	-12281
▁understandable	-12282
53	-12283
ari	-12284
ein	-12285
fty	-12286
hoe	-12287
obe	-12288
ups	-12289
▁27	-12290
▁29	-12291
▁yu	-12292
abby	-12293
alla	-12294
arms	-12295
dain	-12296
fare	-12297
odes	-12298
rend	-12299
some	-12300
ucky	-12301
umns	-12302
vals	-12303
▁186	-12304
▁246	-12305
▁aye	-12306
▁hil	-12307
▁jon	-12308
▁jug	-12309
▁lod	-12310
▁nag	-12311
▁neh	-12312
▁ott	-12313
▁paw	-12314
acent	-12315
ategy	-12316
elain	-12317
icien	-12318
icken	-12319
lines	-12320
opard	-12321
oting	-12322
rical	-12323
verty	-12324
yance	-12325
▁1911	-12326
▁agon	-12327
▁bass	-12328
▁bean	-12329
▁benn	-12330
▁caps	-12331
▁casa	-12332
▁chau	-12333
▁clin	-12334
▁cows	-12335
▁eats	-12336
▁goat	-12337
▁grid	-12338
▁heel	-12339
▁indo	-12340
▁jury	-12341
▁liar	-12342
▁limo	-12343
▁moth	-12344
▁mute	-12345
▁noly	-12346
▁oven	-12347
▁pigs	-12348
▁plea	-12349
▁poet	-12350
▁pork	-12351
▁puff	-12352
▁shin	-12353
▁solo	-12354
▁swat	-12355
▁tipt	-12356
▁trek	-12357
▁tren	-12358
▁unne	-12359
▁whod	-12360
▁zeal	-12361
ankind	-12362
anting	-12363
enance	-12364
encing	-12365
idered	-12366
ilians	-12367
lected	-12368
mitted	-12369
ometer	-12370
resist	-12371
uition	-12372
verted	-12373
▁aster	-12374
▁baked	-12375
▁bends	-12376
▁blend	-12377
▁cleft	-12378
▁clubs	-12379
▁downt	-12380
▁draft	-12381
▁enlar	-12382
▁erupt	-12383
▁escal	-12384
▁fairy	-12385
▁fangs	-12386
▁feast	-12387
▁flapp	-12388
▁flare	-12389
▁glade	-12390
▁hairy	-12391
▁holly	-12392
▁irreg	-12393
▁karen	-12394
▁keith	-12395
▁leaps	-12396
▁lifts	-12397
▁lions	-12398
▁males	-12399
▁maman	-12400
▁mates	-12401
▁maxim	-12402
▁mines	-12403
▁mists	-12404
▁monit	-12405
▁niece	-12406
▁noisy	-12407
▁nylon	-12408
▁orche	-12409
▁otter	-12410
▁overc	-12411
▁patio	-12412
▁peers	-12413
▁posed	-12414
▁reads	-12415
▁realm	-12416
▁reign	-12417
▁risen	-12418
▁rover	-12419
▁shark	-12420
▁spill	-12421
▁spore	-12422
▁stump	-12423
▁tenth	-12424
▁torne	-12425
▁twins	-12426
▁waded	-12427
ableson	-12428
ambling	-12429
ressing	-12430
▁adoles	-12431
▁advise	-12432
▁antics	-12433
▁chalet	-12434
▁clicks	-12435
▁coated	-12436
▁crunch	-12437
▁curves	-12438
▁diving	-12439
▁echoes	-12440
▁fished	-12441
▁fooled	-12442
▁graves	-12443
▁grease	-12444
▁hooded	-12445
▁humble	-12446
▁jogged	-12447
▁lagoon	-12448
▁learns	-12449
▁louvre	-12450
▁manned	-12451
▁messed	-12452
▁minist	-12453
▁muster	-12454
▁pacino	-12455
▁padded	-12456
▁prelim	-12457
▁puffed	-12458
▁rammed	-12459
▁redund	-12460
▁resent	-12461
▁risked	-12462
▁runner	-12463
▁salary	-12464
▁shortt	-12465
▁spared	-12466
▁sprung	-12467
▁sundry	-12468
▁thorns	-12469
▁towels	-12470
▁trauma	-12471
▁vizier	-12472
▁waiter	-12473
▁welled	-12474
▁adopted	-12475
▁audible	-12476
▁briskly	-12477
▁chatted	-12478
▁chewing	-12479
▁chilled	-12480
▁chimney	-12481
▁cleaner	-12482
▁colours	-12483
▁compare	-12484
▁cryptic	-12485
▁daggers	-12486
▁disdain	-12487
▁dresser	-12488
▁fatigue	-12489
▁gleamed	-12490
▁grandma	-12491
▁heaving	-12492
▁heights	-12493
▁inmates	-12494
▁killers	-12495
▁leaping	-12496
▁mayport	-12497
▁mediter	-12498
▁melodie	-12499
▁nursing	-12500
▁obliged	-12501
▁obliter	-12502
▁ominous	-12503
▁pacific	-12504
▁patrols	-12505
▁pebbles	-12506
▁plummet	-12507
▁posture	-12508
▁poverty	-12509
▁profits	-12510
▁profuse	-12511
▁pursued	-12512
▁readers	-12513
▁selfish	-12514
▁sensing	-12515
▁shoving	-12516
▁slicing	-12517
▁snipers	-12518
▁steered	-12519
▁succumb	-12520
▁weaving	-12521
▁approved	-12522
▁assorted	-12523
▁bulkhead	-12524
▁canadian	-12525
▁cemetery	-12526
▁charlies	-12527
▁colorado	-12528
▁contempt	-12529
▁cottages	-12530
▁disappro	-12531
▁dreadful	-12532
▁embedded	-12533
▁european	-12534
▁fiercely	-12535
▁fighters	-12536
▁foothold	-12537
▁gasoline	-12538
▁graceful	-12539
▁guidance	-12540
▁highness	-12541
▁interven	-12542
▁invented	-12543
▁jokingly	-12544
▁nahumiks	-12545
▁nickname	-12546
▁obsessed	-12547
▁opportun	-12548
▁portable	-12549
▁portugal	-12550
▁preoccup	-12551
▁pursuers	-12552
▁relevant	-12553
▁resident	-12554
▁rotating	-12555
▁rustling	-12556
▁sections	-12557
▁sensible	-12558
▁shadowed	-12559
▁showered	-12560
▁spitting	-12561
▁squeaked	-12562
▁strategy	-12563
▁underway	-12564
▁unwanted	-12565
▁watchful	-12566
▁wireless	-12567
▁wrenched	-12568
▁wretched	-12569
▁abundance	-12570
▁ambitions	-12571
▁anonymous	-12572
▁anxiously	-12573
▁arrogance	-12574
▁awkwardly	-12575
▁behaviour	-12576
▁bookstore	-12577
▁civilians	-12578
▁contorted	-12579
▁cygnetics	-12580
▁engrossed	-12581
▁entourage	-12582
▁extensive	-12583
▁fundament	-12584
▁heartbeat	-12585
▁humankind	-12586
▁impending	-12587
▁murderous	-12588
▁northeast	-12589
▁northwest	-12590
▁particles	-12591
▁physician	-12592
▁primarily	-12593
▁reasoning	-12594
▁remembers	-12595
▁residents	-12596
▁satisfact	-12597
▁sentiment	-12598
▁sheltered	-12599
▁spectacle	-12600
▁splitting	-12601
▁stationed	-12602
▁stiffened	-12603
▁unwilling	-12604
▁witnesses	-12605
▁wrestling	-12606
▁wulfstans	-12607
▁artificial	-12608
▁astonished	-12609
▁coincident	-12610
▁compassion	-12611
▁concealing	-12612
▁revivified	-12613
▁transpired	-12614
▁vigorously	-12615
▁wheelchair	-12616
▁camouflaged	-12617
▁challenging	-12618
▁exaggerated	-12619
▁exasperated	-12620
▁expressions	-12621
▁ingredients	-12622
▁lindenbrook	-12623
▁mischievous	-12624
▁revelations	-12625
▁seriousness	-12626
▁trepidation	-12627
▁acquaintance	-12628
▁effortlessly	-12629
▁experimental	-12630
▁triumphantly	-12631
52	-12632
ju	-12633
450	-12634
hib	-12635
hot	-12636
imp	-12637
lia	-12638
nis	-12639
orp	-12640
rap	-12641
rat	-12642
roe	-12643
usp	-12644
▁35	-12645
▁70	-12646
▁hm	-12647
▁ti	-12648
anes	-12649
cery	-12650
chet	-12651
cony	-12652
dled	-12653
idly	-12654
inis	-12655
izer	-12656
kers	-12657
llie	-12658
lsea	-12659
olis	-12660
oust	-12661
ousy	-12662
rift	-12663
shed	-12664
show	-12665
star	-12666
step	-12667
tion	-12668
urry	-12669
usal	-12670
vest	-12671
vity	-12672
▁bib	-12673
▁dee	-12674
▁elo	-12675
▁feb	-12676
▁gee	-12677
▁hub	-12678
▁ned	-12679
▁qur	-12680
▁rue	-12681
▁sew	-12682
▁uno	-12683
▁unz	-12684
▁wry	-12685
arate	-12686
cules	-12687
found	-12688
ggage	-12689
ignan	-12690
lfare	-12691
luded	-12692
osity	-12693
print	-12694
rowth	-12695
space	-12696
still	-12697
toire	-12698
urned	-12699
urous	-12700
utive	-12701
ylvan	-12702
▁ally	-12703
▁alum	-12704
▁beep	-12705
▁bere	-12706
▁bulb	-12707
▁cane	-12708
▁chop	-12709
▁cmon	-12710
▁corp	-12711
▁cozy	-12712
▁crop	-12713
▁fert	-12714
▁geri	-12715
▁iran	-12716
▁kore	-12717
▁lair	-12718
▁lens	-12719
▁lore	-12720
▁narr	-12721
▁nypd	-12722
▁opin	-12723
▁pose	-12724
▁sapp	-12725
▁seam	-12726
▁swer	-12727
▁wren	-12728
▁yank	-12729
cratic	-12730
oplane	-12731
ricult	-12732
shield	-12733
spring	-12734
uation	-12735
weight	-12736
▁aback	-12737
▁adolf	-12738
▁aerob	-12739
▁april	-12740
▁bases	-12741
▁bount	-12742
▁bushy	-12743
▁clown	-12744
▁coals	-12745
▁cobwe	-12746
▁cooks	-12747
▁crist	-12748
▁crust	-12749
▁danny	-12750
▁deple	-12751
▁diary	-12752
▁dilap	-12753
▁disor	-12754
▁fries	-12755
▁globe	-12756
▁groom	-12757
▁halls	-12758
▁hasty	-12759
▁hitch	-12760
▁jerks	-12761
▁jeson	-12762
▁kilos	-12763
▁lifes	-12764
▁lydon	-12765
▁marns	-12766
▁melan	-12767
▁mikes	-12768
▁monar	-12769
▁noses	-12770
▁oddly	-12771
▁olive	-12772
▁outdo	-12773
▁paddo	-12774
▁param	-12775
▁reper	-12776
▁ruler	-12777
▁rural	-12778
▁ryans	-12779
▁sasha	-12780
▁sauce	-12781
▁scowl	-12782
▁seeds	-12783
▁seths	-12784
▁snarl	-12785
▁speck	-12786
▁sunny	-12787
▁trout	-12788
▁tweed	-12789
▁vento	-12790
▁walsh	-12791
▁wrink	-12792
ourable	-12793
owering	-12794
▁allows	-12795
▁apples	-12796
▁arched	-12797
▁astron	-12798
▁bathed	-12799
▁bearls	-12800
▁boards	-12801
▁carrie	-12802
▁chests	-12803
▁chorus	-12804
▁curren	-12805
▁dwarfs	-12806
▁expans	-12807
▁feeble	-12808
▁fridge	-12809
▁giggle	-12810
▁habits	-12811
▁hortos	-12812
▁humour	-12813
▁illust	-12814
▁inflic	-12815
▁injust	-12816
▁ironic	-12817
▁mesmer	-12818
▁missys	-12819
▁monroe	-12820
▁mosque	-12821
▁nausea	-12822
▁pardon	-12823
▁reflex	-12824
▁rocked	-12825
▁sketch	-12826
▁starve	-12827
▁stowed	-12828
▁stroll	-12829
▁thumbs	-12830
▁thwart	-12831
▁tinted	-12832
▁tribal	-12833
▁uneven	-12834
▁unison	-12835
▁vastly	-12836
▁watery	-12837
▁weaker	-12838
▁winged	-12839
▁worker	-12840
▁writer	-12841
▁yawned	-12842
entially	-12843
▁alberto	-12844
▁apprent	-12845
▁arrives	-12846
▁balcony	-12847
▁belongs	-12848
▁bignose	-12849
▁blindly	-12850
▁boredom	-12851
▁bridges	-12852
▁cheered	-12853
▁chelsea	-12854
▁clearer	-12855
▁columns	-12856
▁confess	-12857
▁conserv	-12858
▁crooked	-12859
▁customs	-12860
▁dischar	-12861
▁elegant	-12862
▁elusive	-12863
▁flopped	-12864
▁flutter	-12865
▁freezer	-12866
▁giggles	-12867
▁hamster	-12868
▁inciner	-12869
▁inquiry	-12870
▁interlo	-12871
▁kuching	-12872
▁liberty	-12873
▁luggage	-12874
▁lurched	-12875
▁mirrors	-12876
▁motions	-12877
▁muscled	-12878
▁mutters	-12879
▁nearing	-12880
▁ongoing	-12881
▁orchest	-12882
▁pausing	-12883
▁peeling	-12884
▁peytons	-12885
▁planets	-12886
▁plaster	-12887
▁plumber	-12888
▁receipt	-12889
▁refresh	-12890
▁retract	-12891
▁reviews	-12892
▁royalty	-12893
▁scooped	-12894
▁snarled	-12895
▁snoring	-12896
▁solving	-12897
▁surrept	-12898
▁tactics	-12899
▁tighten	-12900
▁traitor	-12901
▁trimmed	-12902
▁trinity	-12903
▁trotted	-12904
▁veteran	-12905
▁vintage	-12906
▁warlord	-12907
▁welfare	-12908
▁adequate	-12909
▁agricult	-12910
▁animated	-12911
▁backyard	-12912
▁badlands	-12913
▁battling	-12914
▁charming	-12915
▁chickens	-12916
▁defiance	-12917
▁deterior	-12918
▁division	-12919
▁graduate	-12920
▁guessing	-12921
▁infrared	-12922
▁intercom	-12923
▁intruder	-12924
▁japanese	-12925
▁jealousy	-12926
▁magnetic	-12927
▁newfound	-12928
▁november	-12929
▁opinions	-12930
▁opponent	-12931
▁reliable	-12932
▁rendered	-12933
▁reversed	-12934
▁rumbling	-12935
▁ruthless	-12936
▁shrieked	-12937
▁smallest	-12938
▁supremac	-12939
▁threaten	-12940
▁triangle	-12941
▁unnecess	-12942
▁wavering	-12943
▁youthful	-12944
▁adjusting	-12945
▁admitting	-12946
▁aeroplane	-12947
▁annoyance	-12948
▁artifacts	-12949
▁awakening	-12950
▁barricade	-12951
▁betrothal	-12952
▁cathedral	-12953
▁colleague	-12954
▁compelled	-12955
▁contented	-12956
▁disgusted	-12957
▁diversion	-12958
▁exercises	-12959
▁extension	-12960
▁goodnight	-12961
▁graduated	-12962
▁irregular	-12963
▁luxurious	-12964
▁messenger	-12965
▁objective	-12966
▁oversized	-12967
▁perpignan	-12968
▁proximity	-12969
▁quivering	-12970
▁recognise	-12971
▁recollect	-12972
▁redundant	-12973
▁regretted	-12974
▁shimmered	-12975
▁southwest	-12976
▁uniformed	-12977
▁assailants	-12978
▁bewildered	-12979
▁challenges	-12980
▁comprehens	-12981
▁confession	-12982
▁describing	-12983
▁discretion	-12984
▁elementary	-12985
▁envisioned	-12986
▁greenhouse	-12987
▁insignific	-12988
▁intriguing	-12989
▁irritation	-12990
▁leadership	-12991
▁privileged	-12992
▁reenacting	-12993
▁refreshing	-12994
▁reinforced	-12995
▁sandwiches	-12996
▁swallowing	-12997
▁tightening	-12998
▁windshield	-12999
▁accelerated	-13000
▁calculating	-13001
▁contributed	-13002
▁convenience	-13003
▁dilapidated	-13004
▁discovering	-13005
▁embroidered	-13006
▁encouraging	-13007
▁exceedingly	-13008
▁forgiveness	-13009
▁forthcoming	-13010
▁limitations	-13011
▁researchers	-13012
▁revivifying	-13013
▁undergrowth	-13014
▁undoubtedly	-13015
▁descriptions	-13016
▁expectations	-13017
▁miraculously	-13018
▁mediterranean	-13019
dr	-13020
dox	-13021
gia	-13022
hin	-13023
ika	-13024
opp	-13025
rad	-13026
sex	-13027
win	-13028
▁55	-13029
▁bc	-13030
▁bj	-13031
▁eu	-13032
▁ni	-13033
▁uk	-13034
▁yn	-13035
alia	-13036
alid	-13037
anga	-13038
anos	-13039
bbly	-13040
belt	-13041
cove	-13042
etts	-13043
hill	-13044
lorn	-13045
lude	-13046
neel	-13047
ocks	-13048
oman	-13049
ople	-13050
pent	-13051
view	-13052
word	-13053
zuel	-13054
▁150	-13055
▁196	-13056
▁199	-13057
▁aft	-13058
▁bak	-13059
▁bum	-13060
▁gan	-13061
▁ish	-13062
▁rab	-13063
books	-13064
bound	-13065
bralt	-13066
break	-13067
child	-13068
ctica	-13069
erals	-13070
fight	-13071
graph	-13072
inged	-13073
liest	-13074
namon	-13075
ulich	-13076
verns	-13077
▁abdu	-13078
▁arth	-13079
▁bony	-13080
▁bows	-13081
▁bret	-13082
▁brus	-13083
▁clan	-13084
▁coil	-13085
▁cudd	-13086
▁enig	-13087
▁envy	-13088
▁evac	-13089
▁farn	-13090
▁fiss	-13091
▁gyps	-13092
▁howd	-13093
▁howl	-13094
▁idle	-13095
▁kent	-13096
▁lark	-13097
▁marg	-13098
▁mesh	-13099
▁oaks	-13100
▁papi	-13101
▁parl	-13102
▁scul	-13103
▁seet	-13104
▁seka	-13105
▁shal	-13106
▁tala	-13107
▁tugs	-13108
▁worm	-13109
arming	-13110
athing	-13111
ciples	-13112
ithing	-13113
itudes	-13114
teenth	-13115
▁adams	-13116
▁appet	-13117
▁arter	-13118
▁bleak	-13119
▁cater	-13120
▁chast	-13121
▁daisy	-13122
▁dishe	-13123
▁drogo	-13124
▁dynam	-13125
▁fiend	-13126
▁foyer	-13127
▁freck	-13128
▁fuzzy	-13129
▁gasps	-13130
▁grape	-13131
▁guine	-13132
▁hardy	-13133
▁hedge	-13134
▁hides	-13135
▁indif	-13136
▁lakes	-13137
▁latte	-13138
▁leung	-13139
▁lotus	-13140
▁loung	-13141
▁meand	-13142
▁messy	-13143
▁parka	-13144
▁peril	-13145
▁prone	-13146
▁repro	-13147
▁reson	-13148
▁salty	-13149
▁tulsa	-13150
▁twirl	-13151
▁unner	-13152
▁whore	-13153
▁woken	-13154
ophorus	-13155
ylvania	-13156
▁alcove	-13157
▁anglia	-13158
▁attent	-13159
▁berber	-13160
▁bergam	-13161
▁boudet	-13162
▁cancer	-13163
▁chilly	-13164
▁cloudy	-13165
▁coarse	-13166
▁colomb	-13167
▁culiac	-13168
▁dammit	-13169
▁dented	-13170
▁evenly	-13171
▁expend	-13172
▁fathom	-13173
▁forens	-13174
▁futile	-13175
▁gloomy	-13176
▁greasy	-13177
▁grimly	-13178
▁hinted	-13179
▁honors	-13180
▁hushed	-13181
▁inquis	-13182
▁insert	-13183
▁krugal	-13184
▁lacked	-13185
▁lashed	-13186
▁league	-13187
▁loomed	-13188
▁menace	-13189
▁midday	-13190
▁mocked	-13191
▁patron	-13192
▁polish	-13193
▁poster	-13194
▁prices	-13195
▁pumped	-13196
▁radios	-13197
▁rumble	-13198
▁rustle	-13199
▁scrape	-13200
▁shaved	-13201
▁sickly	-13202
▁sovere	-13203
▁squeal	-13204
▁stance	-13205
▁traces	-13206
▁traged	-13207
▁tragic	-13208
▁tricky	-13209
▁volley	-13210
▁yankee	-13211
hensible	-13212
▁acquire	-13213
▁awarded	-13214
▁blinded	-13215
▁buckled	-13216
▁bulging	-13217
▁butcher	-13218
▁carnage	-13219
▁climate	-13220
▁conster	-13221
▁croaked	-13222
▁defence	-13223
▁dragons	-13224
▁enraged	-13225
▁exhaled	-13226
▁falcons	-13227
▁funding	-13228
▁gibralt	-13229
▁gritted	-13230
▁guiding	-13231
▁hobbled	-13232
▁indones	-13233
▁induced	-13234
▁inherit	-13235
▁jeopard	-13236
▁jutting	-13237
▁lengths	-13238
▁mangled	-13239
▁mansion	-13240
▁millenn	-13241
▁moaning	-13242
▁nathani	-13243
▁nestled	-13244
▁notched	-13245
▁periods	-13246
▁presume	-13247
▁rainbow	-13248
▁raining	-13249
▁recomme	-13250
▁rippled	-13251
▁romance	-13252
▁scaring	-13253
▁senneel	-13254
▁shivers	-13255
▁sighted	-13256
▁stashed	-13257
▁steeple	-13258
▁stomped	-13259
▁thieves	-13260
▁tillots	-13261
▁tremble	-13262
▁unevent	-13263
▁wincing	-13264
▁accusing	-13265
▁admiring	-13266
▁alliance	-13267
▁ambition	-13268
▁benefits	-13269
▁bursting	-13270
▁channels	-13271
▁cinnamon	-13272
▁clapping	-13273
▁clicking	-13274
▁confines	-13275
▁creeping	-13276
▁currency	-13277
▁dealings	-13278
▁december	-13279
▁destined	-13280
▁devoured	-13281
▁drenched	-13282
▁egyptian	-13283
▁embarked	-13284
▁expenses	-13285
▁feminine	-13286
▁flourish	-13287
▁freulich	-13288
▁grimaced	-13289
▁groaning	-13290
▁handhold	-13291
▁hangover	-13292
▁hoarsely	-13293
▁homemade	-13294
▁homeward	-13295
▁irresist	-13296
▁junction	-13297
▁measured	-13298
▁mushroom	-13299
▁observer	-13300
▁peepshow	-13301
▁planting	-13302
▁receiver	-13303
▁resigned	-13304
▁resource	-13305
▁sapphire	-13306
▁sleepily	-13307
▁steadied	-13308
▁stitches	-13309
▁stricken	-13310
▁subsided	-13311
▁subspace	-13312
▁surmised	-13313
▁swelling	-13314
▁switches	-13315
▁swiveled	-13316
▁thrilled	-13317
▁transpor	-13318
▁unloaded	-13319
▁unstable	-13320
▁venezuel	-13321
▁vertical	-13322
▁wreckage	-13323
▁writhing	-13324
▁advancing	-13325
▁avalanche	-13326
▁constable	-13327
▁crouching	-13328
▁crunching	-13329
▁distances	-13330
▁emptiness	-13331
▁engineers	-13332
▁entrances	-13333
▁followers	-13334
▁functions	-13335
▁graveyard	-13336
▁greetings	-13337
▁hollywood	-13338
▁imaginary	-13339
▁mortified	-13340
▁overpower	-13341
▁perplexed	-13342
▁preserved	-13343
▁primitive	-13344
▁publisher	-13345
▁radiating	-13346
▁sanctuary	-13347
▁sickening	-13348
▁skeletons	-13349
▁splashing	-13350
▁surprises	-13351
▁technique	-13352
▁twentieth	-13353
▁worthless	-13354
▁acceptance	-13355
▁antarctica	-13356
▁beginnings	-13357
▁completing	-13358
▁definition	-13359
▁depression	-13360
▁earthquake	-13361
▁literature	-13362
▁meaningful	-13363
▁passionate	-13364
▁presenting	-13365
▁procedures	-13366
▁productive	-13367
▁pronounced	-13368
▁accumulated	-13369
▁discoveries	-13370
▁instruction	-13371
▁translation	-13372
▁announcement	-13373
▁anticipating	-13374
▁capabilities	-13375
▁cristophorus	-13376
▁interrupting	-13377
▁observations	-13378
▁participants	-13379
▁reverberated	-13380
▁encouragement	-13381
▁introductions	-13382
▁transformation	-13383
sf	-13384
ym	-13385
hhh	-13386
joy	-13387
kys	-13388
lle	-13389
mud	-13390
nty	-13391
oft	-13392
ost	-13393
ria	-13394
ucc	-13395
▁ci	-13396
▁dj	-13397
▁eg	-13398
anic	-13399
aper	-13400
aude	-13401
icut	-13402
inqu	-13403
mers	-13404
olic	-13405
uman	-13406
umsy	-13407
wall	-13408
▁193	-13409
▁abe	-13410
▁cyn	-13411
▁dos	-13412
▁gaz	-13413
▁gna	-13414
▁ire	-13415
▁jay	-13416
▁jul	-13417
▁kev	-13418
▁mit	-13419
▁nsf	-13420
▁roe	-13421
▁rut	-13422
▁sco	-13423
▁sud	-13424
▁tac	-13425
▁tet	-13426
▁umb	-13427
▁vip	-13428
▁zig	-13429
amous	-13430
avian	-13431
boats	-13432
elesc	-13433
encer	-13434
erity	-13435
ileen	-13436
jamas	-13437
llers	-13438
logra	-13439
remon	-13440
rific	-13441
ruary	-13442
spect	-13443
▁1853	-13444
▁abst	-13445
▁ammo	-13446
▁auto	-13447
▁boca	-13448
▁cack	-13449
▁calf	-13450
▁chis	-13451
▁cobb	-13452
▁dazz	-13453
▁epis	-13454
▁fung	-13455
▁grie	-13456
▁gymn	-13457
▁hmmm	-13458
▁hord	-13459
▁jaws	-13460
▁jell	-13461
▁jord	-13462
▁lain	-13463
▁lash	-13464
▁lent	-13465
▁lucy	-13466
▁melt	-13467
▁mono	-13468
▁narc	-13469
▁oily	-13470
▁paws	-13471
▁poly	-13472
▁redu	-13473
▁reed	-13474
▁tram	-13475
▁unqu	-13476
▁whit	-13477
achete	-13478
ampton	-13479
boards	-13480
bright	-13481
ompass	-13482
onents	-13483
ppling	-13484
seeing	-13485
ulsive	-13486
▁altar	-13487
▁andro	-13488
▁basin	-13489
▁beady	-13490
▁bells	-13491
▁beret	-13492
▁bulbs	-13493
▁camel	-13494
▁cerna	-13495
▁chaps	-13496
▁clang	-13497
▁clive	-13498
▁clump	-13499
▁comet	-13500
▁duffy	-13501
▁elven	-13502
▁films	-13503
▁gator	-13504
▁glint	-13505
▁gordo	-13506
▁grips	-13507
▁hangs	-13508
▁havoc	-13509
▁hound	-13510
▁hydra	-13511
▁incap	-13512
▁indec	-13513
▁jeded	-13514
▁kanga	-13515
▁kneel	-13516
▁maids	-13517
▁masks	-13518
▁nazis	-13519
▁opted	-13520
▁plank	-13521
▁plays	-13522
▁raven	-13523
▁reapp	-13524
▁relay	-13525
▁rides	-13526
▁risks	-13527
▁roofs	-13528
▁scoff	-13529
▁seize	-13530
▁shrew	-13531
▁skate	-13532
▁slips	-13533
▁splin	-13534
▁steak	-13535
▁troph	-13536
▁unrel	-13537
▁verge	-13538
▁vomit	-13539
▁yuhma	-13540
hearted	-13541
inished	-13542
itively	-13543
ologist	-13544
pherson	-13545
▁actors	-13546
▁alight	-13547
▁arsene	-13548
▁ascent	-13549
▁atomic	-13550
▁boxing	-13551
▁bureau	-13552
▁clumsy	-13553
▁conviv	-13554
▁corral	-13555
▁drapes	-13556
▁drying	-13557
▁elenas	-13558
▁embers	-13559
▁ensued	-13560
▁fabian	-13561
▁fences	-13562
▁flatly	-13563
▁flurry	-13564
▁funnel	-13565
▁geomet	-13566
▁greens	-13567
▁growls	-13568
▁guides	-13569
▁guinea	-13570
▁harris	-13571
▁hiring	-13572
▁indent	-13573
▁itiner	-13574
▁judged	-13575
▁keaton	-13576
▁limped	-13577
▁linger	-13578
▁locket	-13579
▁lumber	-13580
▁offers	-13581
▁plague	-13582
▁presum	-13583
▁raises	-13584
▁reconc	-13585
▁rental	-13586
▁resume	-13587
▁retrib	-13588
▁riches	-13589
▁scraps	-13590
▁shabby	-13591
▁shovel	-13592
▁sledge	-13593
▁smoked	-13594
▁sobbed	-13595
▁spellc	-13596
▁stacks	-13597
▁stupor	-13598
▁tablet	-13599
▁telesc	-13600
▁thomps	-13601
▁throng	-13602
▁tremor	-13603
▁typing	-13604
▁unfair	-13605
▁vanish	-13606
▁wafted	-13607
ensively	-13608
ferences	-13609
imentary	-13610
▁anguish	-13611
▁berries	-13612
▁buffoon	-13613
▁canteen	-13614
▁cavalry	-13615
▁compete	-13616
▁costume	-13617
▁creased	-13618
▁curling	-13619
▁deepest	-13620
▁designs	-13621
▁ensured	-13622
▁fancied	-13623
▁firstly	-13624
▁gravely	-13625
▁hangars	-13626
▁hologra	-13627
▁horrors	-13628
▁ireland	-13629
▁kneeled	-13630
▁lighted	-13631
▁lillian	-13632
▁longest	-13633
▁machete	-13634
▁manners	-13635
▁muslims	-13636
▁pudding	-13637
▁railway	-13638
▁rebuild	-13639
▁reclaim	-13640
▁recruit	-13641
▁regions	-13642
▁screech	-13643
▁shuttle	-13644
▁sockets	-13645
▁sternly	-13646
▁strokes	-13647
▁switzer	-13648
▁teenage	-13649
▁thicket	-13650
▁tortora	-13651
▁tracing	-13652
▁tragedy	-13653
▁uninhab	-13654
▁unstopp	-13655
▁vibrant	-13656
▁wavered	-13657
▁whimper	-13658
▁absently	-13659
▁africans	-13660
▁bandages	-13661
▁bicycles	-13662
▁bookcase	-13663
▁boundary	-13664
▁bubbling	-13665
▁bustling	-13666
▁colonels	-13667
▁coolness	-13668
▁coughing	-13669
▁cultural	-13670
▁deceased	-13671
▁deserves	-13672
▁doorbell	-13673
▁enclosed	-13674
▁february	-13675
▁flailing	-13676
▁flooding	-13677
▁forgiven	-13678
▁harmless	-13679
▁haunting	-13680
▁imminent	-13681
▁incompre	-13682
▁jedediah	-13683
▁jonathan	-13684
▁leavitts	-13685
▁mouthful	-13686
▁mustache	-13687
▁outdoors	-13688
▁parallel	-13689
▁persuade	-13690
▁ponytail	-13691
▁presents	-13692
▁punished	-13693
▁recruits	-13694
▁robertos	-13695
▁seatbelt	-13696
▁securing	-13697
▁severely	-13698
▁shutting	-13699
▁sinister	-13700
▁slapping	-13701
▁sniffing	-13702
▁squatted	-13703
▁stoddard	-13704
▁supplied	-13705
▁surfaces	-13706
▁swearing	-13707
▁tempered	-13708
▁troopers	-13709
▁twenties	-13710
▁unending	-13711
▁unharmed	-13712
▁urgently	-13713
▁writings	-13714
▁balancing	-13715
▁caressing	-13716
▁catalogue	-13717
▁colonists	-13718
▁comparing	-13719
▁considers	-13720
▁embracing	-13721
▁encompass	-13722
▁execution	-13723
▁feathered	-13724
▁gibraltar	-13725
▁glistened	-13726
▁houseboat	-13727
▁injustice	-13728
▁integrity	-13729
▁navigator	-13730
▁nightfall	-13731
▁prominent	-13732
▁promotion	-13733
▁qualities	-13734
▁radiation	-13735
▁reenactor	-13736
▁revulsion	-13737
▁skeptical	-13738
▁slaughter	-13739
▁stairwell	-13740
▁starboard	-13741
▁superstru	-13742
▁teachings	-13743
▁tentacles	-13744
▁tillotson	-13745
▁twinkling	-13746
▁unceremon	-13747
▁vegetable	-13748
▁welcoming	-13749
▁yorkshire	-13750
▁admittedly	-13751
▁allegiance	-13752
▁apologetic	-13753
▁assessment	-13754
▁classmates	-13755
▁designated	-13756
▁fluttering	-13757
▁hesitantly	-13758
▁immigrants	-13759
▁investment	-13760
▁prosperous	-13761
▁restrained	-13762
▁retreating	-13763
▁shattering	-13764
▁somethings	-13765
▁strawberry	-13766
▁witchcraft	-13767
▁wordlessly	-13768
▁connecticut	-13769
▁dimensional	-13770
▁flashlights	-13771
▁holographic	-13772
▁mercenaries	-13773
▁overflowing	-13774
▁restoration	-13775
▁screwdriver	-13776
▁switzerland	-13777
▁technically	-13778
▁undertakers	-13779
▁undertaking	-13780
▁coincidental	-13781
▁experiencing	-13782
▁explanations	-13783
▁institutions	-13784
▁investigated	-13785
▁irresistible	-13786
▁presentation	-13787
▁satisfactory	-13788
▁concentrating	-13789
▁consternation	-13790
▁environmental	-13791
▁establishment	-13792
▁insignificant	-13793
rr	-13794
sl	-13795
aid	-13796
cre	-13797
ely	-13798
iee	-13799
ogy	-13800
oom	-13801
org	-13802
she	-13803
wal	-13804
wny	-13805
▁va	-13806
apor	-13807
awar	-13808
bles	-13809
chel	-13810
iber	-13811
inge	-13812
ingo	-13813
inks	-13814
jand	-13815
keys	-13816
mail	-13817
ndar	-13818
rona	-13819
ulum	-13820
unge	-13821
wide	-13822
▁cac	-13823
▁hic	-13824
▁hun	-13825
▁lac	-13826
▁mcd	-13827
▁meg	-13828
▁pim	-13829
▁sab	-13830
▁tum	-13831
▁ugh	-13832
▁urn	-13833
achus	-13834
bored	-13835
ettes	-13836
ighty	-13837
isers	-13838
mored	-13839
omena	-13840
ongru	-13841
riers	-13842
rolls	-13843
urbed	-13844
▁1621	-13845
▁cine	-13846
▁daze	-13847
▁diet	-13848
▁dold	-13849
▁dome	-13850
▁embo	-13851
▁ench	-13852
▁fend	-13853
▁grac	-13854
▁howe	-13855
▁inad	-13856
▁inco	-13857
▁jara	-13858
▁jets	-13859
▁lays	-13860
▁leth	-13861
▁loot	-13862
▁muck	-13863
▁nazi	-13864
▁oath	-13865
▁orph	-13866
▁owns	-13867
▁pads	-13868
▁pear	-13869
▁pesh	-13870
▁plug	-13871
▁pots	-13872
▁pric	-13873
▁rive	-13874
▁sins	-13875
▁snag	-13876
▁taps	-13877
▁thri	-13878
▁unde	-13879
▁urns	-13880
▁whiz	-13881
alling	-13882
anched	-13883
atters	-13884
bering	-13885
effect	-13886
erment	-13887
ficial	-13888
ieekin	-13889
ivated	-13890
jandro	-13891
ophony	-13892
phones	-13893
uffled	-13894
utable	-13895
▁abern	-13896
▁aging	-13897
▁album	-13898
▁aloft	-13899
▁array	-13900
▁asses	-13901
▁ayles	-13902
▁bache	-13903
▁bauer	-13904
▁belts	-13905
▁bulky	-13906
▁burly	-13907
▁cakes	-13908
▁chile	-13909
▁cider	-13910
▁claus	-13911
▁claym	-13912
▁darin	-13913
▁doris	-13914
▁drool	-13915
▁dumbf	-13916
▁eaton	-13917
▁enact	-13918
▁engra	-13919
▁euros	-13920
▁folly	-13921
▁gangs	-13922
▁gemas	-13923
▁goons	-13924
▁grimy	-13925
▁gruff	-13926
▁guild	-13927
▁harms	-13928
▁hates	-13929
▁incar	-13930
▁initi	-13931
▁jerry	-13932
▁kills	-13933
▁molli	-13934
▁nowad	-13935
▁patri	-13936
▁paved	-13937
▁penns	-13938
▁quill	-13939
▁ruben	-13940
▁sakes	-13941
▁sands	-13942
▁scutt	-13943
▁senor	-13944
▁shern	-13945
▁shrub	-13946
▁slate	-13947
▁smoky	-13948
▁synag	-13949
▁taxes	-13950
▁towed	-13951
▁trill	-13952
▁unmar	-13953
▁urban	-13954
▁wakes	-13955
inkable	-13956
manship	-13957
parable	-13958
▁adrona	-13959
▁alarms	-13960
▁alphab	-13961
▁angled	-13962
▁arctic	-13963
▁bounce	-13964
▁bounds	-13965
▁burund	-13966
▁bypass	-13967
▁carbon	-13968
▁chalky	-13969
▁chunks	-13970
▁colder	-13971
▁compat	-13972
▁cooled	-13973
▁cupped	-13974
▁dating	-13975
▁deploy	-13976
▁disreg	-13977
▁dodged	-13978
▁donuts	-13979
▁dotted	-13980
▁downed	-13981
▁econom	-13982
▁emilys	-13983
▁enscon	-13984
▁errand	-13985
▁facial	-13986
▁factor	-13987
▁fucker	-13988
▁fungus	-13989
▁gallon	-13990
▁gannet	-13991
▁goblet	-13992
▁groans	-13993
▁hawker	-13994
▁huffed	-13995
▁hurley	-13996
▁ideals	-13997
▁indist	-13998
▁jacque	-13999
▁journe	-14000
▁kaynos	-14001
▁kellen	-14002
▁lauren	-14003
▁legacy	-14004
▁losses	-14005
▁maniac	-14006
▁marker	-14007
▁meager	-14008
▁mining	-14009
▁precar	-14010
▁prohib	-14011
▁propag	-14012
▁rabbis	-14013
▁reappe	-14014
▁recept	-14015
▁reckon	-14016
▁regime	-14017
▁replen	-14018
▁sagged	-14019
▁shards	-14020
▁shriek	-14021
▁slings	-14022
▁sliver	-14023
▁snakes	-14024
▁snatch	-14025
▁softer	-14026
▁spends	-14027
▁stiles	-14028
▁termin	-14029
▁toyota	-14030
▁trance	-14031
▁turkey	-14032
▁unease	-14033
▁update	-14034
▁veered	-14035
▁verify	-14036
▁wooded	-14037
inescent	-14038
ittering	-14039
▁alarmed	-14040
▁armored	-14041
▁backhoe	-14042
▁bearded	-14043
▁bonfire	-14044
▁chandel	-14045
▁cobwebs	-14046
▁conjure	-14047
▁conting	-14048
▁declare	-14049
▁desires	-14050
▁elieson	-14051
▁exploit	-14052
▁forearm	-14053
▁forlorn	-14054
▁grocery	-14055
▁gunfire	-14056
▁hoisted	-14057
▁hopping	-14058
▁howling	-14059
▁justify	-14060
▁manages	-14061
▁messing	-14062
▁mingled	-14063
▁olewans	-14064
▁opposed	-14065
▁origins	-14066
▁paddock	-14067
▁pajamas	-14068
▁parlour	-14069
▁pasture	-14070
▁platoon	-14071
▁players	-14072
▁ranging	-14073
▁rattled	-14074
▁refusal	-14075
▁reverie	-14076
▁ribbons	-14077
▁rickety	-14078
▁rockets	-14079
▁rooftop	-14080
▁senator	-14081
▁shuffle	-14082
▁signals	-14083
▁sneaked	-14084
▁stagger	-14085
▁stamper	-14086
▁streaks	-14087
▁substit	-14088
▁summons	-14089
▁sweetie	-14090
▁sweetly	-14091
▁tending	-14092
▁thicker	-14093
▁tugging	-14094
▁twirled	-14095
▁varying	-14096
▁walkers	-14097
▁winters	-14098
achusetts	-14099
hetically	-14100
▁adjacent	-14101
▁armchair	-14102
▁arrivals	-14103
▁bachelor	-14104
▁backside	-14105
▁centered	-14106
▁chapters	-14107
▁churning	-14108
▁crackled	-14109
▁cradling	-14110
▁creaking	-14111
▁culiacan	-14112
▁customer	-14113
▁declined	-14114
▁designer	-14115
▁disembar	-14116
▁doorstep	-14117
▁downtown	-14118
▁drowning	-14119
▁elevated	-14120
▁filomena	-14121
▁flipping	-14122
▁focusing	-14123
▁haunches	-14124
▁heavenly	-14125
▁hercules	-14126
▁humidity	-14127
▁inadvert	-14128
▁incongru	-14129
▁indicate	-14130
▁infamous	-14131
▁infantry	-14132
▁inferior	-14133
▁interpol	-14134
▁lemonade	-14135
▁managing	-14136
▁mastered	-14137
▁octavian	-14138
▁ornament	-14139
▁outlined	-14140
▁peshawar	-14141
▁pursuing	-14142
▁recoiled	-14143
▁refilled	-14144
▁reserves	-14145
▁skeletal	-14146
▁smashing	-14147
▁solomons	-14148
▁spotting	-14149
▁stifling	-14150
▁stupidly	-14151
▁traverse	-14152
▁uncommon	-14153
▁widening	-14154
▁abernathy	-14155
▁alejandro	-14156
▁assaulted	-14157
▁assurance	-14158
▁aylesbury	-14159
▁billowing	-14160
▁cacophony	-14161
▁chemicals	-14162
▁defending	-14163
▁disorient	-14164
▁fireworks	-14165
▁imagining	-14166
▁infection	-14167
▁insistent	-14168
▁kingsport	-14169
▁mcpherson	-14170
▁motioning	-14171
▁nathaniel	-14172
▁necessity	-14173
▁officials	-14174
▁offspring	-14175
▁penetrate	-14176
▁populated	-14177
▁realistic	-14178
▁rectangle	-14179
▁regaining	-14180
▁reporters	-14181
▁sarcastic	-14182
▁sincerity	-14183
▁sputtered	-14184
▁strolling	-14185
▁twitching	-14186
▁universal	-14187
▁untouched	-14188
▁whirlpool	-14189
▁accurately	-14190
▁admonished	-14191
▁aggressive	-14192
▁associates	-14193
▁bergamiser	-14194
▁businesses	-14195
▁calculated	-14196
▁cataloguer	-14197
▁commitment	-14198
▁completion	-14199
▁devastated	-14200
▁disappears	-14201
▁disappoint	-14202
▁dissipated	-14203
▁freeieekin	-14204
▁pleasantly	-14205
▁precaution	-14206
▁preferring	-14207
▁principles	-14208
▁providence	-14209
▁recovering	-14210
▁relentless	-14211
▁scratching	-14212
▁separating	-14213
▁spectacles	-14214
▁speechless	-14215
▁temptation	-14216
▁tenderness	-14217
▁unfinished	-14218
▁victorious	-14219
▁application	-14220
▁certificate	-14221
▁confederacy	-14222
▁conspicuous	-14223
▁counterpart	-14224
▁dumbfounded	-14225
▁electronics	-14226
▁farnborough	-14227
▁fundamental	-14228
▁inscription	-14229
▁maintaining	-14230
▁preoccupied	-14231
▁probability	-14232
▁restaurants	-14233
▁retribution	-14234
▁architecture	-14235
▁conventional	-14236
▁difficulties	-14237
▁emphatically	-14238
▁greenlanders	-14239
▁independence	-14240
▁intellectual	-14241
▁necromancers	-14242
▁pennsylvania	-14243
▁perspiration	-14244
▁manufacturing	-14245
▁massachusetts	-14246
▁questioningly	-14247
▁interpretation	-14248
▁superstructure	-14249
▁unceremoniously	-14250
78	-14251
oh	-14252
awa	-14253
cat	-14254
eem	-14255
eer	-14256
iat	-14257
lar	-14258
nab	-14259
oys	-14260
ppa	-14261
tis	-14262
try	-14263
uba	-14264
▁80	-14265
▁hn	-14266
▁pi	-14267
▁rp	-14268
aaaa	-14269
agne	-14270
answ	-14271
azeb	-14272
card	-14273
cers	-14274
conn	-14275
ders	-14276
eler	-14277
elle	-14278
erpt	-14279
face	-14280
ibre	-14281
ldom	-14282
life	-14283
loss	-14284
nant	-14285
neck	-14286
oral	-14287
plus	-14288
quod	-14289
rium	-14290
uber	-14291
▁.30	-14292
▁411	-14293
▁bem	-14294
▁ced	-14295
▁chu	-14296
▁dab	-14297
▁doa	-14298
▁dod	-14299
▁gin	-14300
▁hog	-14301
▁jig	-14302
▁lil	-14303
▁nir	-14304
▁pam	-14305
▁paz	-14306
▁pry	-14307
▁sib	-14308
▁spi	-14309
▁tig	-14310
▁wys	-14311
after	-14312
ester	-14313
estic	-14314
ettle	-14315
hears	-14316
idded	-14317
ignty	-14318
ilogy	-14319
iries	-14320
logue	-14321
naiss	-14322
ourse	-14323
oused	-14324
reras	-14325
spond	-14326
ulars	-14327
unked	-14328
▁1917	-14329
▁asph	-14330
▁bapt	-14331
▁beet	-14332
▁bugs	-14333
▁caes	-14334
▁coax	-14335
▁digs	-14336
▁foym	-14337
▁furs	-14338
▁gown	-14339
▁heir	-14340
▁hypo	-14341
▁idly	-14342
▁keno	-14343
▁krol	-14344
▁lard	-14345
▁lees	-14346
▁lend	-14347
▁lest	-14348
▁lima	-14349
▁mime	-14350
▁nasa	-14351
▁nood	-14352
▁pash	-14353
▁patr	-14354
▁pent	-14355
▁pins	-14356
▁pueb	-14357
▁roto	-14358
▁seaw	-14359
▁sham	-14360
▁slug	-14361
▁trig	-14362
▁turf	-14363
▁unke	-14364
▁verd	-14365
▁weed	-14366
▁wiry	-14367
aneous	-14368
atical	-14369
cester	-14370
erably	-14371
ortion	-14372
▁abode	-14373
▁acute	-14374
▁aided	-14375
▁allen	-14376
▁argos	-14377
▁bangs	-14378
▁bazeb	-14379
▁bonds	-14380
▁bosun	-14381
▁breed	-14382
▁clasp	-14383
▁cleve	-14384
▁clips	-14385
▁dryly	-14386
▁encro	-14387
▁entit	-14388
▁fusel	-14389
▁goats	-14390
▁grail	-14391
▁grill	-14392
▁hence	-14393
▁hunts	-14394
▁jelly	-14395
▁jerky	-14396
▁liver	-14397
▁lowly	-14398
▁madly	-14399
▁moust	-14400
▁myths	-14401
▁overd	-14402
▁owens	-14403
▁penis	-14404
▁raspy	-14405
▁rival	-14406
▁shave	-14407
▁shrou	-14408
▁sincl	-14409
▁sling	-14410
▁smith	-14411
▁stout	-14412
▁strut	-14413
▁tabor	-14414
▁tasty	-14415
▁tiago	-14416
▁umbre	-14417
▁veloc	-14418
▁vents	-14419
▁vocal	-14420
▁width	-14421
iciency	-14422
ictions	-14423
ilation	-14424
isation	-14425
usively	-14426
vention	-14427
▁aileen	-14428
▁alpine	-14429
▁ashton	-14430
▁athlet	-14431
▁baking	-14432
▁belize	-14433
▁boiled	-14434
▁boomed	-14435
▁bosses	-14436
▁bowels	-14437
▁brandy	-14438
▁carols	-14439
▁checks	-14440
▁circus	-14441
▁claude	-14442
▁combed	-14443
▁consum	-14444
▁convoy	-14445
▁critic	-14446
▁digest	-14447
▁exquis	-14448
▁freyja	-14449
▁frying	-14450
▁grotes	-14451
▁hearst	-14452
▁heroic	-14453
▁hikers	-14454
▁holder	-14455
▁howled	-14456
▁inject	-14457
▁jordan	-14458
▁kyules	-14459
▁liquor	-14460
▁livest	-14461
▁looped	-14462
▁mayday	-14463
▁nought	-14464
▁oozing	-14465
▁oppose	-14466
▁overse	-14467
▁pallet	-14468
▁pedest	-14469
▁prying	-14470
▁rasped	-14471
▁recipe	-14472
▁regist	-14473
▁screws	-14474
▁shined	-14475
▁shrewd	-14476
▁shrine	-14477
▁spares	-14478
▁spooky	-14479
▁tennis	-14480
▁unansw	-14481
▁unload	-14482
▁unsusp	-14483
▁wagons	-14484
▁wannab	-14485
▁wessex	-14486
▁whales	-14487
▁zipped	-14488
itations	-14489
kerchief	-14490
▁alchemy	-14491
▁baggage	-14492
▁banging	-14493
▁brimmed	-14494
▁broadly	-14495
▁caliber	-14496
▁chained	-14497
▁chipped	-14498
▁cobbled	-14499
▁comrade	-14500
▁connors	-14501
▁crafted	-14502
▁crevice	-14503
▁cruelty	-14504
▁dangled	-14505
▁dealers	-14506
▁deposit	-14507
▁devious	-14508
▁dignity	-14509
▁ducking	-14510
▁earshot	-14511
▁elkanos	-14512
▁excerpt	-14513
▁fastest	-14514
▁fateful	-14515
▁fervent	-14516
▁fingern	-14517
▁flitted	-14518
▁frankly	-14519
▁gallons	-14520
▁graphic	-14521
▁grazing	-14522
▁harmony	-14523
▁harshly	-14524
▁hauling	-14525
▁haunted	-14526
▁hilmore	-14527
▁hydraul	-14528
▁jogging	-14529
▁killjoy	-14530
▁lelands	-14531
▁liberal	-14532
▁marches	-14533
▁minimal	-14534
▁murmurs	-14535
▁pension	-14536
▁pervert	-14537
▁physics	-14538
▁pitiful	-14539
▁proving	-14540
▁rehears	-14541
▁relinqu	-14542
▁remarks	-14543
▁resurre	-14544
▁satchel	-14545
▁scrolls	-14546
▁seasons	-14547
▁spoiled	-14548
▁suffice	-14549
▁supreme	-14550
▁teenerz	-14551
▁theater	-14552
▁theatre	-14553
▁timtown	-14554
[...]
